{
  "version": "1.0",
  "truncation": null,
  "padding": null,
  "added_tokens": [
    {
      "id": 0,
      "content": "[UNK]",
      "single_word": false,
      "lstrip": false,
      "rstrip": false,
      "normalized": false,
      "special": true
    }
  ],
  "normalizer": {
    "type": "NFKC"
  },
  "pre_tokenizer": {
    "type": "BertPreTokenizer"
  },
  "post_processor": null,
  "decoder": null,
  "model": {
    "type": "BPE",
    "dropout": null,
    "unk_token": "[UNK]",
    "continuing_subword_prefix": "##",
    "end_of_word_suffix": null,
    "fuse_unk": false,
    "byte_fallback": false,
    "ignore_merges": false,
    "vocab": {
      "[UNK]": 0,
      "!": 1,
      "\"": 2,
      "#": 3,
      "$": 4,
      "%": 5,
      "&": 6,
      "'": 7,
      "(": 8,
      ")": 9,
      "*": 10,
      "+": 11,
      ",": 12,
      "-": 13,
      ".": 14,
      "/": 15,
      "0": 16,
      "1": 17,
      "2": 18,
      "3": 19,
      "4": 20,
      "5": 21,
      "6": 22,
      "7": 23,
      "8": 24,
      "9": 25,
      ":": 26,
      ";": 27,
      "<": 28,
      "=": 29,
      ">": 30,
      "?": 31,
      "@": 32,
      "A": 33,
      "B": 34,
      "C": 35,
      "D": 36,
      "E": 37,
      "F": 38,
      "G": 39,
      "H": 40,
      "I": 41,
      "J": 42,
      "K": 43,
      "L": 44,
      "M": 45,
      "N": 46,
      "O": 47,
      "P": 48,
      "Q": 49,
      "R": 50,
      "S": 51,
      "T": 52,
      "U": 53,
      "V": 54,
      "W": 55,
      "X": 56,
      "Y": 57,
      "Z": 58,
      "[": 59,
      "\\": 60,
      "]": 61,
      "^": 62,
      "_": 63,
      "`": 64,
      "a": 65,
      "b": 66,
      "c": 67,
      "d": 68,
      "e": 69,
      "f": 70,
      "g": 71,
      "h": 72,
      "i": 73,
      "j": 74,
      "k": 75,
      "l": 76,
      "m": 77,
      "n": 78,
      "o": 79,
      "p": 80,
      "q": 81,
      "r": 82,
      "s": 83,
      "t": 84,
      "u": 85,
      "v": 86,
      "w": 87,
      "x": 88,
      "y": 89,
      "z": 90,
      "{": 91,
      "|": 92,
      "}": 93,
      "~": 94,
      "": 95,
      "": 96,
      "": 97,
      "": 98,
      "": 99,
      "": 100,
      "¡": 101,
      "¢": 102,
      "£": 103,
      "¤": 104,
      "¥": 105,
      "§": 106,
      "©": 107,
      "«": 108,
      "­": 109,
      "®": 110,
      "°": 111,
      "±": 112,
      "¶": 113,
      "·": 114,
      "»": 115,
      "¿": 116,
      "À": 117,
      "Á": 118,
      "Â": 119,
      "Ä": 120,
      "Å": 121,
      "Æ": 122,
      "Ç": 123,
      "È": 124,
      "É": 125,
      "Ê": 126,
      "Ë": 127,
      "Ì": 128,
      "Í": 129,
      "Î": 130,
      "Ï": 131,
      "Ð": 132,
      "Ñ": 133,
      "Ò": 134,
      "Ó": 135,
      "Ô": 136,
      "Õ": 137,
      "Ö": 138,
      "×": 139,
      "Ø": 140,
      "Ù": 141,
      "Ú": 142,
      "Ü": 143,
      "Ý": 144,
      "Þ": 145,
      "ß": 146,
      "à": 147,
      "á": 148,
      "â": 149,
      "ã": 150,
      "ä": 151,
      "å": 152,
      "æ": 153,
      "ç": 154,
      "è": 155,
      "é": 156,
      "ê": 157,
      "ë": 158,
      "ì": 159,
      "í": 160,
      "î": 161,
      "ï": 162,
      "ð": 163,
      "ñ": 164,
      "ò": 165,
      "ó": 166,
      "ô": 167,
      "õ": 168,
      "ö": 169,
      "÷": 170,
      "ø": 171,
      "ù": 172,
      "ú": 173,
      "û": 174,
      "ü": 175,
      "ý": 176,
      "þ": 177,
      "ÿ": 178,
      "Ā": 179,
      "ā": 180,
      "Ă": 181,
      "ă": 182,
      "ą": 183,
      "Ć": 184,
      "ć": 185,
      "ĉ": 186,
      "Ċ": 187,
      "ċ": 188,
      "Č": 189,
      "č": 190,
      "Ď": 191,
      "ď": 192,
      "Đ": 193,
      "đ": 194,
      "Ē": 195,
      "ē": 196,
      "Ĕ": 197,
      "ĕ": 198,
      "Ė": 199,
      "ė": 200,
      "ę": 201,
      "Ě": 202,
      "ě": 203,
      "ğ": 204,
      "Ġ": 205,
      "ġ": 206,
      "Ģ": 207,
      "ģ": 208,
      "Ĥ": 209,
      "Ħ": 210,
      "ħ": 211,
      "ĩ": 212,
      "Ī": 213,
      "ī": 214,
      "ĭ": 215,
      "į": 216,
      "İ": 217,
      "ı": 218,
      "ĵ": 219,
      "Ķ": 220,
      "ķ": 221,
      "ĸ": 222,
      "ĺ": 223,
      "ļ": 224,
      "Ľ": 225,
      "ľ": 226,
      "Ł": 227,
      "ł": 228,
      "ń": 229,
      "ņ": 230,
      "ň": 231,
      "Ŋ": 232,
      "ŋ": 233,
      "Ō": 234,
      "ō": 235,
      "ŏ": 236,
      "ő": 237,
      "Œ": 238,
      "œ": 239,
      "Ŗ": 240,
      "ŗ": 241,
      "Ř": 242,
      "ř": 243,
      "Ś": 244,
      "ś": 245,
      "Ŝ": 246,
      "Ş": 247,
      "ş": 248,
      "Š": 249,
      "š": 250,
      "Ţ": 251,
      "ţ": 252,
      "ť": 253,
      "ŧ": 254,
      "ũ": 255,
      "Ū": 256,
      "ū": 257,
      "ŭ": 258,
      "ů": 259,
      "ű": 260,
      "ų": 261,
      "ŵ": 262,
      "ŷ": 263,
      "Ź": 264,
      "ź": 265,
      "Ż": 266,
      "ż": 267,
      "Ž": 268,
      "ž": 269,
      "ƀ": 270,
      "Ɔ": 271,
      "Ƈ": 272,
      "ƈ": 273,
      "Ɖ": 274,
      "ƍ": 275,
      "Ǝ": 276,
      "Ə": 277,
      "Ɛ": 278,
      "ƒ": 279,
      "Ɣ": 280,
      "ƙ": 281,
      "ƛ": 282,
      "ơ": 283,
      "Ƣ": 284,
      "ƥ": 285,
      "ƭ": 286,
      "ư": 287,
      "Ʋ": 288,
      "ƿ": 289,
      "ǀ": 290,
      "ǁ": 291,
      "ǂ": 292,
      "ǃ": 293,
      "ǎ": 294,
      "ǐ": 295,
      "Ǒ": 296,
      "ǒ": 297,
      "ǔ": 298,
      "ǚ": 299,
      "ǜ": 300,
      "ǝ": 301,
      "Ǣ": 302,
      "ǣ": 303,
      "Ǧ": 304,
      "ǧ": 305,
      "Ǫ": 306,
      "ǫ": 307,
      "ǭ": 308,
      "ǰ": 309,
      "ǵ": 310,
      "Ƿ": 311,
      "Ǹ": 312,
      "ǹ": 313,
      "ǽ": 314,
      "Ș": 315,
      "ș": 316,
      "Ț": 317,
      "ț": 318,
      "Ȝ": 319,
      "ȝ": 320,
      "ȟ": 321,
      "ȯ": 322,
      "ȳ": 323,
      "ȷ": 324,
      "ȼ": 325,
      "Ɉ": 326,
      "ɐ": 327,
      "ɑ": 328,
      "ɒ": 329,
      "ɓ": 330,
      "ɔ": 331,
      "ɕ": 332,
      "ɖ": 333,
      "ɗ": 334,
      "ɘ": 335,
      "ə": 336,
      "ɚ": 337,
      "ɛ": 338,
      "ɜ": 339,
      "ɞ": 340,
      "ɟ": 341,
      "ɠ": 342,
      "ɡ": 343,
      "ɢ": 344,
      "ɣ": 345,
      "ɤ": 346,
      "ɥ": 347,
      "ɦ": 348,
      "ɧ": 349,
      "ɨ": 350,
      "ɪ": 351,
      "ɫ": 352,
      "ɬ": 353,
      "ɭ": 354,
      "ɮ": 355,
      "ɯ": 356,
      "ɰ": 357,
      "ɱ": 358,
      "ɲ": 359,
      "ɳ": 360,
      "ɴ": 361,
      "ɵ": 362,
      "ɶ": 363,
      "ɷ": 364,
      "ɸ": 365,
      "ɹ": 366,
      "ɺ": 367,
      "ɻ": 368,
      "ɽ": 369,
      "ɾ": 370,
      "ʀ": 371,
      "ʁ": 372,
      "ʂ": 373,
      "ʃ": 374,
      "ʄ": 375,
      "ʇ": 376,
      "ʈ": 377,
      "ʉ": 378,
      "ʊ": 379,
      "ʋ": 380,
      "ʌ": 381,
      "ʍ": 382,
      "ʎ": 383,
      "ʏ": 384,
      "ʐ": 385,
      "ʑ": 386,
      "ʒ": 387,
      "ʔ": 388,
      "ʕ": 389,
      "ʖ": 390,
      "ʗ": 391,
      "ʘ": 392,
      "ʙ": 393,
      "ʛ": 394,
      "ʝ": 395,
      "ʟ": 396,
      "ʠ": 397,
      "ʡ": 398,
      "ʢ": 399,
      "ʹ": 400,
      "ʻ": 401,
      "ʼ": 402,
      "ʽ": 403,
      "ʾ": 404,
      "ʿ": 405,
      "ˀ": 406,
      "ˁ": 407,
      "ˆ": 408,
      "ˇ": 409,
      "ˈ": 410,
      "ˌ": 411,
      "ː": 412,
      "ˑ": 413,
      "˔": 414,
      "˕": 415,
      "˖": 416,
      "˞": 417,
      "˥": 418,
      "˦": 419,
      "˧": 420,
      "˨": 421,
      "˩": 422,
      "̀": 423,
      "́": 424,
      "̂": 425,
      "̃": 426,
      "̄": 427,
      "̆": 428,
      "̇": 429,
      "̈": 430,
      "̊": 431,
      "̋": 432,
      "̌": 433,
      "̍": 434,
      "̏": 435,
      "̐": 436,
      "̑": 437,
      "̓": 438,
      "̖": 439,
      "̗": 440,
      "̚": 441,
      "̝": 442,
      "̞": 443,
      "̟": 444,
      "̠": 445,
      "̣": 446,
      "̤": 447,
      "̥": 448,
      "̧": 449,
      "̩": 450,
      "̪": 451,
      "̬": 452,
      "̮": 453,
      "̯": 454,
      "̰": 455,
      "̱": 456,
      "̲": 457,
      "̳": 458,
      "̺": 459,
      "̽": 460,
      "͌": 461,
      "͍": 462,
      "͘": 463,
      "͜": 464,
      "͡": 465,
      "Ά": 466,
      "Έ": 467,
      "Ή": 468,
      "Ί": 469,
      "Ό": 470,
      "Ύ": 471,
      "ΐ": 472,
      "Α": 473,
      "Β": 474,
      "Γ": 475,
      "Δ": 476,
      "Ε": 477,
      "Ζ": 478,
      "Η": 479,
      "Θ": 480,
      "Ι": 481,
      "Κ": 482,
      "Λ": 483,
      "Μ": 484,
      "Ν": 485,
      "Ξ": 486,
      "Ο": 487,
      "Π": 488,
      "Ρ": 489,
      "Σ": 490,
      "Τ": 491,
      "Υ": 492,
      "Φ": 493,
      "Χ": 494,
      "Ψ": 495,
      "Ω": 496,
      "ά": 497,
      "έ": 498,
      "ή": 499,
      "ί": 500,
      "α": 501,
      "β": 502,
      "γ": 503,
      "δ": 504,
      "ε": 505,
      "ζ": 506,
      "η": 507,
      "θ": 508,
      "ι": 509,
      "κ": 510,
      "λ": 511,
      "μ": 512,
      "ν": 513,
      "ξ": 514,
      "ο": 515,
      "π": 516,
      "ρ": 517,
      "ς": 518,
      "σ": 519,
      "τ": 520,
      "υ": 521,
      "φ": 522,
      "χ": 523,
      "ψ": 524,
      "ω": 525,
      "ϊ": 526,
      "ό": 527,
      "ύ": 528,
      "ώ": 529,
      "ϝ": 530,
      "ϟ": 531,
      "Ђ": 532,
      "Є": 533,
      "І": 534,
      "Ї": 535,
      "Ј": 536,
      "Љ": 537,
      "Ћ": 538,
      "А": 539,
      "Б": 540,
      "В": 541,
      "Г": 542,
      "Д": 543,
      "Е": 544,
      "Ж": 545,
      "З": 546,
      "И": 547,
      "Й": 548,
      "К": 549,
      "Л": 550,
      "М": 551,
      "Н": 552,
      "О": 553,
      "П": 554,
      "Р": 555,
      "С": 556,
      "Т": 557,
      "У": 558,
      "Ф": 559,
      "Х": 560,
      "Ц": 561,
      "Ч": 562,
      "Ш": 563,
      "Щ": 564,
      "Ъ": 565,
      "Ы": 566,
      "Ь": 567,
      "Э": 568,
      "Ю": 569,
      "Я": 570,
      "а": 571,
      "б": 572,
      "в": 573,
      "г": 574,
      "д": 575,
      "е": 576,
      "ж": 577,
      "з": 578,
      "и": 579,
      "й": 580,
      "к": 581,
      "л": 582,
      "м": 583,
      "н": 584,
      "о": 585,
      "п": 586,
      "р": 587,
      "с": 588,
      "т": 589,
      "у": 590,
      "ф": 591,
      "х": 592,
      "ц": 593,
      "ч": 594,
      "ш": 595,
      "щ": 596,
      "ъ": 597,
      "ы": 598,
      "ь": 599,
      "э": 600,
      "ю": 601,
      "я": 602,
      "ё": 603,
      "ђ": 604,
      "є": 605,
      "і": 606,
      "ї": 607,
      "ј": 608,
      "љ": 609,
      "њ": 610,
      "ћ": 611,
      "ѝ": 612,
      "ў": 613,
      "Ѡ": 614,
      "ѡ": 615,
      "Ѣ": 616,
      "ѣ": 617,
      "ѥ": 618,
      "ѧ": 619,
      "Ѯ": 620,
      "ѹ": 621,
      "҆": 622,
      "ғ": 623,
      "қ": 624,
      "ү": 625,
      "ҳ": 626,
      "ҷ": 627,
      "ӣ": 628,
      "Ө": 629,
      "ө": 630,
      "ӯ": 631,
      "Ӷ": 632,
      "ӷ": 633,
      "Ա": 634,
      "Բ": 635,
      "Գ": 636,
      "Դ": 637,
      "Ե": 638,
      "Զ": 639,
      "Է": 640,
      "Ը": 641,
      "Թ": 642,
      "Ժ": 643,
      "Ի": 644,
      "Լ": 645,
      "Խ": 646,
      "Կ": 647,
      "Հ": 648,
      "Ձ": 649,
      "Ղ": 650,
      "Ճ": 651,
      "Մ": 652,
      "Յ": 653,
      "Ն": 654,
      "Շ": 655,
      "Ո": 656,
      "Պ": 657,
      "Ջ": 658,
      "Ռ": 659,
      "Ս": 660,
      "Վ": 661,
      "Տ": 662,
      "Փ": 663,
      "Ք": 664,
      "Օ": 665,
      "ա": 666,
      "բ": 667,
      "գ": 668,
      "դ": 669,
      "ե": 670,
      "զ": 671,
      "է": 672,
      "ը": 673,
      "թ": 674,
      "ժ": 675,
      "ի": 676,
      "լ": 677,
      "խ": 678,
      "ծ": 679,
      "կ": 680,
      "հ": 681,
      "ձ": 682,
      "ղ": 683,
      "ճ": 684,
      "մ": 685,
      "յ": 686,
      "ն": 687,
      "շ": 688,
      "ո": 689,
      "չ": 690,
      "պ": 691,
      "ջ": 692,
      "ռ": 693,
      "ս": 694,
      "վ": 695,
      "տ": 696,
      "ր": 697,
      "ց": 698,
      "ւ": 699,
      "փ": 700,
      "ք": 701,
      "օ": 702,
      "֤": 703,
      "֫": 704,
      "ְ": 705,
      "ֱ": 706,
      "ֲ": 707,
      "ֳ": 708,
      "ִ": 709,
      "ֵ": 710,
      "ֶ": 711,
      "ַ": 712,
      "ָ": 713,
      "ֹ": 714,
      "ֻ": 715,
      "ּ": 716,
      "ֽ": 717,
      "ֿ": 718,
      "ׁ": 719,
      "ׂ": 720,
      "א": 721,
      "ב": 722,
      "ג": 723,
      "ד": 724,
      "ה": 725,
      "ו": 726,
      "ז": 727,
      "ח": 728,
      "ט": 729,
      "י": 730,
      "ך": 731,
      "כ": 732,
      "ל": 733,
      "ם": 734,
      "מ": 735,
      "ן": 736,
      "נ": 737,
      "ס": 738,
      "ע": 739,
      "ף": 740,
      "פ": 741,
      "ץ": 742,
      "צ": 743,
      "ק": 744,
      "ר": 745,
      "ש": 746,
      "ת": 747,
      "ױ": 748,
      "׳": 749,
      "،": 750,
      "ء": 751,
      "آ": 752,
      "أ": 753,
      "ؤ": 754,
      "إ": 755,
      "ئ": 756,
      "ا": 757,
      "ب": 758,
      "ة": 759,
      "ت": 760,
      "ث": 761,
      "ج": 762,
      "ح": 763,
      "خ": 764,
      "د": 765,
      "ذ": 766,
      "ر": 767,
      "ز": 768,
      "س": 769,
      "ش": 770,
      "ص": 771,
      "ض": 772,
      "ط": 773,
      "ظ": 774,
      "ع": 775,
      "غ": 776,
      "ـ": 777,
      "ف": 778,
      "ق": 779,
      "ك": 780,
      "ل": 781,
      "م": 782,
      "ن": 783,
      "ه": 784,
      "و": 785,
      "ى": 786,
      "ي": 787,
      "ً": 788,
      "ٌ": 789,
      "ٍ": 790,
      "َ": 791,
      "ُ": 792,
      "ِ": 793,
      "ّ": 794,
      "ْ": 795,
      "ٔ": 796,
      "١": 797,
      "٧": 798,
      "ٰ": 799,
      "پ": 800,
      "چ": 801,
      "ڈ": 802,
      "ڠ": 803,
      "ک": 804,
      "ڬ": 805,
      "گ": 806,
      "ں": 807,
      "ھ": 808,
      "ہ": 809,
      "ی": 810,
      "ۍ": 811,
      "ے": 812,
      "ە": 813,
      "ܐ": 814,
      "ܒ": 815,
      "ܔ": 816,
      "ܕ": 817,
      "ܗ": 818,
      "ܘ": 819,
      "ܙ": 820,
      "ܚ": 821,
      "ܛ": 822,
      "ܝ": 823,
      "ܠ": 824,
      "ܡ": 825,
      "ܢ": 826,
      "ܣ": 827,
      "ܥ": 828,
      "ܦ": 829,
      "ܪ": 830,
      "ܬ": 831,
      "ܲ": 832,
      "ܵ": 833,
      "ܼ": 834,
      "݂": 835,
      "ँ": 836,
      "ं": 837,
      "ः": 838,
      "अ": 839,
      "आ": 840,
      "इ": 841,
      "ई": 842,
      "उ": 843,
      "ऋ": 844,
      "ए": 845,
      "ऐ": 846,
      "औ": 847,
      "क": 848,
      "ख": 849,
      "ग": 850,
      "घ": 851,
      "ङ": 852,
      "च": 853,
      "छ": 854,
      "ज": 855,
      "ञ": 856,
      "ट": 857,
      "ठ": 858,
      "ड": 859,
      "ण": 860,
      "त": 861,
      "थ": 862,
      "द": 863,
      "ध": 864,
      "न": 865,
      "प": 866,
      "फ": 867,
      "ब": 868,
      "भ": 869,
      "म": 870,
      "य": 871,
      "र": 872,
      "ल": 873,
      "व": 874,
      "श": 875,
      "ष": 876,
      "स": 877,
      "ह": 878,
      "़": 879,
      "ऽ": 880,
      "ा": 881,
      "ि": 882,
      "ी": 883,
      "ु": 884,
      "ू": 885,
      "ृ": 886,
      "ॆ": 887,
      "े": 888,
      "ै": 889,
      "ॉ": 890,
      "ॊ": 891,
      "ो": 892,
      "ौ": 893,
      "्": 894,
      "ॐ": 895,
      "।": 896,
      "॥": 897,
      "१": 898,
      "२": 899,
      "३": 900,
      "ং": 901,
      "অ": 902,
      "আ": 903,
      "ই": 904,
      "এ": 905,
      "ক": 906,
      "খ": 907,
      "গ": 908,
      "ঙ": 909,
      "চ": 910,
      "জ": 911,
      "ট": 912,
      "ড": 913,
      "ঢ": 914,
      "ণ": 915,
      "ত": 916,
      "থ": 917,
      "দ": 918,
      "ন": 919,
      "প": 920,
      "ব": 921,
      "ভ": 922,
      "ম": 923,
      "য": 924,
      "র": 925,
      "ল": 926,
      "শ": 927,
      "ষ": 928,
      "স": 929,
      "হ": 930,
      "়": 931,
      "া": 932,
      "ি": 933,
      "ী": 934,
      "ু": 935,
      "ূ": 936,
      "ে": 937,
      "ৈ": 938,
      "ো": 939,
      "্": 940,
      "ৰ": 941,
      "ਂ": 942,
      "ਅ": 943,
      "ਉ": 944,
      "ਖ": 945,
      "ਘ": 946,
      "ਜ": 947,
      "ਝ": 948,
      "ਦ": 949,
      "ਲ": 950,
      "ਵ": 951,
      "ਸ": 952,
      "ਹ": 953,
      "਼": 954,
      "ਾ": 955,
      "ਿ": 956,
      "ੁ": 957,
      "ੇ": 958,
      "ੰ": 959,
      "ੱ": 960,
      "ખ": 961,
      "ફ": 962,
      "બ": 963,
      "ર": 964,
      "લ": 965,
      "સ": 966,
      "ા": 967,
      "ો": 968,
      "ପ": 969,
      "ର": 970,
      "ୀ": 971,
      "ୁ": 972,
      "ஃ": 973,
      "அ": 974,
      "ஆ": 975,
      "இ": 976,
      "ஈ": 977,
      "எ": 978,
      "ஒ": 979,
      "க": 980,
      "ங": 981,
      "ச": 982,
      "ட": 983,
      "ண": 984,
      "த": 985,
      "ந": 986,
      "ன": 987,
      "ப": 988,
      "ம": 989,
      "ய": 990,
      "ர": 991,
      "ற": 992,
      "ல": 993,
      "ள": 994,
      "ழ": 995,
      "வ": 996,
      "ஸ": 997,
      "ா": 998,
      "ி": 999,
      "ீ": 1000,
      "ு": 1001,
      "ூ": 1002,
      "ெ": 1003,
      "ே": 1004,
      "ை": 1005,
      "ோ": 1006,
      "்": 1007,
      "ం": 1008,
      "క": 1009,
      "ఖ": 1010,
      "గ": 1011,
      "జ": 1012,
      "ట": 1013,
      "ఠ": 1014,
      "డ": 1015,
      "త": 1016,
      "థ": 1017,
      "ద": 1018,
      "న": 1019,
      "ప": 1020,
      "బ": 1021,
      "భ": 1022,
      "మ": 1023,
      "య": 1024,
      "ర": 1025,
      "ల": 1026,
      "వ": 1027,
      "ష": 1028,
      "స": 1029,
      "ా": 1030,
      "ి": 1031,
      "ీ": 1032,
      "ు": 1033,
      "ై": 1034,
      "ో": 1035,
      "్": 1036,
      "ಂ": 1037,
      "ಃ": 1038,
      "ಕ": 1039,
      "ಖ": 1040,
      "ಗ": 1041,
      "ಚ": 1042,
      "ಟ": 1043,
      "ಠ": 1044,
      "ಡ": 1045,
      "ತ": 1046,
      "ದ": 1047,
      "ನ": 1048,
      "ಪ": 1049,
      "ಬ": 1050,
      "ಭ": 1051,
      "ಮ": 1052,
      "ಯ": 1053,
      "ರ": 1054,
      "ಱ": 1055,
      "ಲ": 1056,
      "ಳ": 1057,
      "ವ": 1058,
      "ಶ": 1059,
      "ಸ": 1060,
      "ಹ": 1061,
      "ಾ": 1062,
      "ಿ": 1063,
      "ು": 1064,
      "ೇ": 1065,
      "ೋ": 1066,
      "್": 1067,
      "ೞ": 1068,
      "അ": 1069,
      "ങ": 1070,
      "ദ": 1071,
      "ന": 1072,
      "പ": 1073,
      "മ": 1074,
      "യ": 1075,
      "ര": 1076,
      "ള": 1077,
      "വ": 1078,
      "ശ": 1079,
      "സ": 1080,
      "ഹ": 1081,
      "ാ": 1082,
      "ി": 1083,
      "്": 1084,
      "අ": 1085,
      "එ": 1086,
      "ක": 1087,
      "ග": 1088,
      "ජ": 1089,
      "ත": 1090,
      "ධ": 1091,
      "න": 1092,
      "ප": 1093,
      "ම": 1094,
      "ය": 1095,
      "ර": 1096,
      "ල": 1097,
      "ව": 1098,
      "ශ": 1099,
      "හ": 1100,
      "ළ": 1101,
      "්": 1102,
      "ා": 1103,
      "ැ": 1104,
      "ි": 1105,
      "ු": 1106,
      "ේ": 1107,
      "ෝ": 1108,
      "ก": 1109,
      "ข": 1110,
      "ค": 1111,
      "ฆ": 1112,
      "ง": 1113,
      "จ": 1114,
      "ฉ": 1115,
      "ช": 1116,
      "ซ": 1117,
      "ญ": 1118,
      "ฎ": 1119,
      "ฏ": 1120,
      "ฐ": 1121,
      "ฑ": 1122,
      "ณ": 1123,
      "ด": 1124,
      "ต": 1125,
      "ถ": 1126,
      "ท": 1127,
      "ธ": 1128,
      "น": 1129,
      "บ": 1130,
      "ป": 1131,
      "ผ": 1132,
      "ฝ": 1133,
      "พ": 1134,
      "ฟ": 1135,
      "ภ": 1136,
      "ม": 1137,
      "ย": 1138,
      "ร": 1139,
      "ฤ": 1140,
      "ล": 1141,
      "ว": 1142,
      "ศ": 1143,
      "ษ": 1144,
      "ส": 1145,
      "ห": 1146,
      "ฬ": 1147,
      "อ": 1148,
      "ฮ": 1149,
      "ะ": 1150,
      "ั": 1151,
      "า": 1152,
      "ิ": 1153,
      "ี": 1154,
      "ึ": 1155,
      "ื": 1156,
      "ุ": 1157,
      "ู": 1158,
      "฿": 1159,
      "เ": 1160,
      "แ": 1161,
      "โ": 1162,
      "ใ": 1163,
      "ไ": 1164,
      "็": 1165,
      "่": 1166,
      "้": 1167,
      "๊": 1168,
      "์": 1169,
      "ํ": 1170,
      "་": 1171,
      "།": 1172,
      "ཀ": 1173,
      "ཁ": 1174,
      "ག": 1175,
      "ང": 1176,
      "ཆ": 1177,
      "ཇ": 1178,
      "ཐ": 1179,
      "ད": 1180,
      "ན": 1181,
      "པ": 1182,
      "བ": 1183,
      "མ": 1184,
      "ཙ": 1185,
      "ཚ": 1186,
      "ཛ": 1187,
      "འ": 1188,
      "ཡ": 1189,
      "ར": 1190,
      "ལ": 1191,
      "ས": 1192,
      "ཧ": 1193,
      "ི": 1194,
      "ུ": 1195,
      "ེ": 1196,
      "ོ": 1197,
      "ྟ": 1198,
      "ྡ": 1199,
      "ྣ": 1200,
      "ྤ": 1201,
      "ྥ": 1202,
      "ྱ": 1203,
      "ྲ": 1204,
      "က": 1205,
      "ဂ": 1206,
      "င": 1207,
      "စ": 1208,
      "ဆ": 1209,
      "န": 1210,
      "ပ": 1211,
      "ဗ": 1212,
      "ဘ": 1213,
      "မ": 1214,
      "ယ": 1215,
      "ရ": 1216,
      "လ": 1217,
      "ဝ": 1218,
      "ဟ": 1219,
      "ာ": 1220,
      "ိ": 1221,
      "ီ": 1222,
      "ု": 1223,
      "ူ": 1224,
      "ဲ": 1225,
      "း": 1226,
      "္": 1227,
      "်": 1228,
      "ျ": 1229,
      "ြ": 1230,
      "ှ": 1231,
      "Ⴀ": 1232,
      "Ⴂ": 1233,
      "Ⴃ": 1234,
      "Ⴈ": 1235,
      "Ⴌ": 1236,
      "Ⴕ": 1237,
      "Ⴟ": 1238,
      "ა": 1239,
      "ბ": 1240,
      "გ": 1241,
      "დ": 1242,
      "ე": 1243,
      "ვ": 1244,
      "ზ": 1245,
      "თ": 1246,
      "ი": 1247,
      "კ": 1248,
      "ლ": 1249,
      "მ": 1250,
      "ნ": 1251,
      "ო": 1252,
      "პ": 1253,
      "ჟ": 1254,
      "რ": 1255,
      "ს": 1256,
      "ტ": 1257,
      "უ": 1258,
      "ფ": 1259,
      "ქ": 1260,
      "ღ": 1261,
      "ყ": 1262,
      "შ": 1263,
      "ჩ": 1264,
      "ც": 1265,
      "ძ": 1266,
      "წ": 1267,
      "ჭ": 1268,
      "ხ": 1269,
      "ჯ": 1270,
      "ჰ": 1271,
      "ჱ": 1272,
      "ჲ": 1273,
      "ჳ": 1274,
      "ჴ": 1275,
      "ჵ": 1276,
      "ჶ": 1277,
      "ჷ": 1278,
      "ჸ": 1279,
      "ჹ": 1280,
      "ჺ": 1281,
      "჻": 1282,
      "ሀ": 1283,
      "ለ": 1284,
      "ሐ": 1285,
      "ሓ": 1286,
      "ሕ": 1287,
      "መ": 1288,
      "ማ": 1289,
      "ሥ": 1290,
      "ረ": 1291,
      "ር": 1292,
      "ሰ": 1293,
      "ስ": 1294,
      "ቆ": 1295,
      "ቈ": 1296,
      "በ": 1297,
      "ብ": 1298,
      "ቲ": 1299,
      "ታ": 1300,
      "ት": 1301,
      "ነ": 1302,
      "ና": 1303,
      "ን": 1304,
      "ኖ": 1305,
      "አ": 1306,
      "ኢ": 1307,
      "እ": 1308,
      "ከ": 1309,
      "ኲ": 1310,
      "ዕ": 1311,
      "ዘ": 1312,
      "ዛ": 1313,
      "የ": 1314,
      "ያ": 1315,
      "ይ": 1316,
      "ዮ": 1317,
      "ደ": 1318,
      "ድ": 1319,
      "ጅ": 1320,
      "ገ": 1321,
      "ጉ": 1322,
      "ጵ": 1323,
      "ፈ": 1324,
      "ፍ": 1325,
      "፡": 1326,
      "Ꭰ": 1327,
      "Ꭳ": 1328,
      "Ꭶ": 1329,
      "Ꭸ": 1330,
      "Ꭹ": 1331,
      "Ꮀ": 1332,
      "Ꮃ": 1333,
      "Ꮉ": 1334,
      "Ꮝ": 1335,
      "Ꮿ": 1336,
      "Ᏹ": 1337,
      "ᐊ": 1338,
      "ᑲ": 1339,
      "ᒡ": 1340,
      "ᓘ": 1341,
      "ᚢ": 1342,
      "ᚣ": 1343,
      "ᚦ": 1344,
      "ᚨ": 1345,
      "ᚩ": 1346,
      "ᚬ": 1347,
      "ᚱ": 1348,
      "ᚷ": 1349,
      "ᚹ": 1350,
      "ᚺ": 1351,
      "ᚻ": 1352,
      "ᚼ": 1353,
      "ᚾ": 1354,
      "ᛁ": 1355,
      "ᛃ": 1356,
      "ᛄ": 1357,
      "ᛇ": 1358,
      "ᛋ": 1359,
      "ᛏ": 1360,
      "ᛒ": 1361,
      "ᛗ": 1362,
      "ᛚ": 1363,
      "ᛝ": 1364,
      "ᛞ": 1365,
      "ᛟ": 1366,
      "ᛠ": 1367,
      "ក": 1368,
      "ខ": 1369,
      "គ": 1370,
      "ង": 1371,
      "ច": 1372,
      "ឆ": 1373,
      "ជ": 1374,
      "ញ": 1375,
      "ដ": 1376,
      "ឋ": 1377,
      "ណ": 1378,
      "ត": 1379,
      "ថ": 1380,
      "ទ": 1381,
      "ធ": 1382,
      "ន": 1383,
      "ប": 1384,
      "ព": 1385,
      "ភ": 1386,
      "ម": 1387,
      "យ": 1388,
      "រ": 1389,
      "ល": 1390,
      "វ": 1391,
      "ស": 1392,
      "ហ": 1393,
      "អ": 1394,
      "ឥ": 1395,
      "ឪ": 1396,
      "ឫ": 1397,
      "ឯ": 1398,
      "឵": 1399,
      "ា": 1400,
      "ិ": 1401,
      "ី": 1402,
      "ឹ": 1403,
      "ឺ": 1404,
      "ុ": 1405,
      "ូ": 1406,
      "ួ": 1407,
      "ៀ": 1408,
      "េ": 1409,
      "ែ": 1410,
      "ៃ": 1411,
      "ោ": 1412,
      "ៅ": 1413,
      "ំ": 1414,
      "ះ": 1415,
      "ៈ": 1416,
      "៉": 1417,
      "់": 1418,
      "្": 1419,
      "ᠠ": 1420,
      "ᠣ": 1421,
      "ᠨ": 1422,
      "ᠪ": 1423,
      "ᠮ": 1424,
      "ᠯ": 1425,
      "ᠰ": 1426,
      "ᠴ": 1427,
      "ᠵ": 1428,
      "ᠸ": 1429,
      "ᡝ": 1430,
      "ᡠ": 1431,
      "ᡥ": 1432,
      "ᡨ": 1433,
      "ᡳ": 1434,
      "ᡴ": 1435,
      "ᡵ": 1436,
      "ᵻ": 1437,
      "ᵿ": 1438,
      "ᶑ": 1439,
      "᷄": 1440,
      "᷅": 1441,
      "᷆": 1442,
      "᷇": 1443,
      "᷈": 1444,
      "᷉": 1445,
      "᷽": 1446,
      "Ḍ": 1447,
      "ḍ": 1448,
      "Ḏ": 1449,
      "ḏ": 1450,
      "ḑ": 1451,
      "ḕ": 1452,
      "ḗ": 1453,
      "Ḣ": 1454,
      "Ḥ": 1455,
      "ḥ": 1456,
      "Ḩ": 1457,
      "ḩ": 1458,
      "Ḫ": 1459,
      "ḫ": 1460,
      "ḭ": 1461,
      "ḱ": 1462,
      "Ḳ": 1463,
      "ḳ": 1464,
      "ḵ": 1465,
      "ḷ": 1466,
      "ḹ": 1467,
      "ḻ": 1468,
      "ḿ": 1469,
      "ṁ": 1470,
      "ṃ": 1471,
      "ṅ": 1472,
      "ṇ": 1473,
      "ṉ": 1474,
      "ṓ": 1475,
      "ṙ": 1476,
      "Ṛ": 1477,
      "ṛ": 1478,
      "Ṝ": 1479,
      "ṝ": 1480,
      "ṟ": 1481,
      "Ṣ": 1482,
      "ṣ": 1483,
      "Ṧ": 1484,
      "Ṫ": 1485,
      "Ṭ": 1486,
      "ṭ": 1487,
      "Ṯ": 1488,
      "ṯ": 1489,
      "ṳ": 1490,
      "ṵ": 1491,
      "Ṽ": 1492,
      "ṽ": 1493,
      "ẃ": 1494,
      "Ẓ": 1495,
      "ẓ": 1496,
      "ẖ": 1497,
      "ạ": 1498,
      "ả": 1499,
      "Ấ": 1500,
      "ấ": 1501,
      "ầ": 1502,
      "Ẩ": 1503,
      "ẩ": 1504,
      "ẫ": 1505,
      "ậ": 1506,
      "ắ": 1507,
      "ằ": 1508,
      "ẵ": 1509,
      "ặ": 1510,
      "ẹ": 1511,
      "ẻ": 1512,
      "ẽ": 1513,
      "ế": 1514,
      "ề": 1515,
      "ể": 1516,
      "ễ": 1517,
      "ệ": 1518,
      "ỉ": 1519,
      "ị": 1520,
      "Ọ": 1521,
      "ọ": 1522,
      "ỏ": 1523,
      "Ố": 1524,
      "ố": 1525,
      "ồ": 1526,
      "ổ": 1527,
      "ỗ": 1528,
      "ộ": 1529,
      "ớ": 1530,
      "ờ": 1531,
      "ở": 1532,
      "ợ": 1533,
      "Ụ": 1534,
      "ụ": 1535,
      "ủ": 1536,
      "Ứ": 1537,
      "ứ": 1538,
      "ừ": 1539,
      "ử": 1540,
      "ữ": 1541,
      "ự": 1542,
      "ỳ": 1543,
      "ỵ": 1544,
      "ỹ": 1545,
      "ἀ": 1546,
      "ἁ": 1547,
      "ἂ": 1548,
      "ἃ": 1549,
      "ἄ": 1550,
      "ἅ": 1551,
      "Ἀ": 1552,
      "Ἁ": 1553,
      "Ἄ": 1554,
      "Ἅ": 1555,
      "ἐ": 1556,
      "ἑ": 1557,
      "ἒ": 1558,
      "ἔ": 1559,
      "ἕ": 1560,
      "Ἐ": 1561,
      "Ἑ": 1562,
      "Ἔ": 1563,
      "Ἕ": 1564,
      "ἠ": 1565,
      "ἡ": 1566,
      "ἢ": 1567,
      "ἤ": 1568,
      "ἥ": 1569,
      "ἦ": 1570,
      "ἧ": 1571,
      "Ἠ": 1572,
      "Ἡ": 1573,
      "ἰ": 1574,
      "ἱ": 1575,
      "ἲ": 1576,
      "ἳ": 1577,
      "ἴ": 1578,
      "ἵ": 1579,
      "ἶ": 1580,
      "ἷ": 1581,
      "Ἰ": 1582,
      "Ἱ": 1583,
      "Ἶ": 1584,
      "ὀ": 1585,
      "ὁ": 1586,
      "ὂ": 1587,
      "ὃ": 1588,
      "ὄ": 1589,
      "ὅ": 1590,
      "Ὁ": 1591,
      "Ὄ": 1592,
      "ὐ": 1593,
      "ὑ": 1594,
      "ὔ": 1595,
      "ὕ": 1596,
      "ὖ": 1597,
      "ὗ": 1598,
      "Ὕ": 1599,
      "ὡ": 1600,
      "ὣ": 1601,
      "ὤ": 1602,
      "ὥ": 1603,
      "ὦ": 1604,
      "Ὠ": 1605,
      "Ὡ": 1606,
      "Ὦ": 1607,
      "ὰ": 1608,
      "ὲ": 1609,
      "ὴ": 1610,
      "ὶ": 1611,
      "ὸ": 1612,
      "ὺ": 1613,
      "ὼ": 1614,
      "ᾓ": 1615,
      "ᾰ": 1616,
      "ᾳ": 1617,
      "ᾶ": 1618,
      "ᾷ": 1619,
      "ῆ": 1620,
      "ῇ": 1621,
      "Ὲ": 1622,
      "ῐ": 1623,
      "ῑ": 1624,
      "ῖ": 1625,
      "Ὶ": 1626,
      "ῠ": 1627,
      "ῥ": 1628,
      "ῦ": 1629,
      "Ῥ": 1630,
      "ῳ": 1631,
      "ῶ": 1632,
      "ῷ": 1633,
      "​": 1634,
      "‌": 1635,
      "‍": 1636,
      "‐": 1637,
      "‒": 1638,
      "–": 1639,
      "—": 1640,
      "―": 1641,
      "‖": 1642,
      "‘": 1643,
      "’": 1644,
      "‚": 1645,
      "‛": 1646,
      "“": 1647,
      "”": 1648,
      "„": 1649,
      "‟": 1650,
      "†": 1651,
      "‡": 1652,
      "•": 1653,
      "‰": 1654,
      "′": 1655,
      "※": 1656,
      "‿": 1657,
      "⁄": 1658,
      "⁊": 1659,
      "⁠": 1660,
      "⁡": 1661,
      "₡": 1662,
      "₣": 1663,
      "₤": 1664,
      "₦": 1665,
      "₧": 1666,
      "₩": 1667,
      "₫": 1668,
      "€": 1669,
      "₱": 1670,
      "₴": 1671,
      "₹": 1672,
      "℞": 1673,
      "℥": 1674,
      "←": 1675,
      "↑": 1676,
      "→": 1677,
      "↓": 1678,
      "↔": 1679,
      "↗": 1680,
      "↘": 1681,
      "↦": 1682,
      "↪": 1683,
      "↵": 1684,
      "⇄": 1685,
      "⇌": 1686,
      "⇒": 1687,
      "⇪": 1688,
      "∀": 1689,
      "∂": 1690,
      "∅": 1691,
      "∆": 1692,
      "∇": 1693,
      "∈": 1694,
      "∉": 1695,
      "∊": 1696,
      "∑": 1697,
      "−": 1698,
      "∕": 1699,
      "∖": 1700,
      "∗": 1701,
      "∘": 1702,
      "√": 1703,
      "∝": 1704,
      "∞": 1705,
      "∤": 1706,
      "∩": 1707,
      "∪": 1708,
      "∫": 1709,
      "∴": 1710,
      "∼": 1711,
      "≈": 1712,
      "≠": 1713,
      "≡": 1714,
      "≢": 1715,
      "≤": 1716,
      "≥": 1717,
      "≪": 1718,
      "≫": 1719,
      "≲": 1720,
      "⊂": 1721,
      "⊕": 1722,
      "⊗": 1723,
      "⊙": 1724,
      "⊞": 1725,
      "⊢": 1726,
      "⊣": 1727,
      "⊥": 1728,
      "⋅": 1729,
      "⋆": 1730,
      "⋯": 1731,
      "⌊": 1732,
      "⌋": 1733,
      "⌘": 1734,
      "─": 1735,
      "█": 1736,
      "▢": 1737,
      "▲": 1738,
      "▼": 1739,
      "○": 1740,
      "●": 1741,
      "◦": 1742,
      "☄": 1743,
      "★": 1744,
      "☆": 1745,
      "☉": 1746,
      "☧": 1747,
      "☫": 1748,
      "☭": 1749,
      "☽": 1750,
      "☾": 1751,
      "♀": 1752,
      "♂": 1753,
      "♄": 1754,
      "♅": 1755,
      "♆": 1756,
      "♇": 1757,
      "♈": 1758,
      "♉": 1759,
      "♠": 1760,
      "♣": 1761,
      "♥": 1762,
      "♦": 1763,
      "♩": 1764,
      "♪": 1765,
      "♭": 1766,
      "♮": 1767,
      "♯": 1768,
      "⚳": 1769,
      "⚴": 1770,
      "⚵": 1771,
      "⛢": 1772,
      "✡": 1773,
      "✱": 1774,
      "❄": 1775,
      "❅": 1776,
      "❆": 1777,
      "❤": 1778,
      "⟦": 1779,
      "⟧": 1780,
      "⟨": 1781,
      "⟩": 1782,
      "⥇": 1783,
      "⩽": 1784,
      "⫶": 1785,
      "ⱱ": 1786,
      "ⲁ": 1787,
      "ⲛ": 1788,
      "ⲥ": 1789,
      "ⲧ": 1790,
      "ⲩ": 1791,
      "Ⲫ": 1792,
      "ⲱ": 1793,
      "ⴰ": 1794,
      "ⴳ": 1795,
      "ⴷ": 1796,
      "ⴻ": 1797,
      "ⴼ": 1798,
      "ⴽ": 1799,
      "ⵃ": 1800,
      "ⵇ": 1801,
      "ⵉ": 1802,
      "ⵍ": 1803,
      "ⵎ": 1804,
      "ⵏ": 1805,
      "ⵓ": 1806,
      "ⵔ": 1807,
      "ⵕ": 1808,
      "ⵖ": 1809,
      "ⵙ": 1810,
      "ⵛ": 1811,
      "ⵜ": 1812,
      "ⵡ": 1813,
      "ⵢ": 1814,
      "ⵣ": 1815,
      "⸨": 1816,
      "⸩": 1817,
      "、": 1818,
      "。": 1819,
      "々": 1820,
      "〈": 1821,
      "〉": 1822,
      "《": 1823,
      "》": 1824,
      "「": 1825,
      "」": 1826,
      "『": 1827,
      "』": 1828,
      "【": 1829,
      "】": 1830,
      "〒": 1831,
      "〜": 1832,
      "あ": 1833,
      "ぃ": 1834,
      "い": 1835,
      "ぅ": 1836,
      "う": 1837,
      "ぇ": 1838,
      "え": 1839,
      "ぉ": 1840,
      "お": 1841,
      "か": 1842,
      "が": 1843,
      "き": 1844,
      "ぎ": 1845,
      "く": 1846,
      "ぐ": 1847,
      "け": 1848,
      "げ": 1849,
      "こ": 1850,
      "ご": 1851,
      "さ": 1852,
      "ざ": 1853,
      "し": 1854,
      "じ": 1855,
      "す": 1856,
      "ず": 1857,
      "せ": 1858,
      "ぜ": 1859,
      "そ": 1860,
      "ぞ": 1861,
      "た": 1862,
      "だ": 1863,
      "ち": 1864,
      "っ": 1865,
      "つ": 1866,
      "づ": 1867,
      "て": 1868,
      "で": 1869,
      "と": 1870,
      "ど": 1871,
      "な": 1872,
      "に": 1873,
      "ぬ": 1874,
      "ね": 1875,
      "の": 1876,
      "は": 1877,
      "ば": 1878,
      "ぱ": 1879,
      "ひ": 1880,
      "び": 1881,
      "ぴ": 1882,
      "ふ": 1883,
      "ぶ": 1884,
      "ぷ": 1885,
      "へ": 1886,
      "べ": 1887,
      "ぺ": 1888,
      "ほ": 1889,
      "ぼ": 1890,
      "ぽ": 1891,
      "ま": 1892,
      "み": 1893,
      "む": 1894,
      "め": 1895,
      "も": 1896,
      "ゃ": 1897,
      "や": 1898,
      "ゅ": 1899,
      "ゆ": 1900,
      "ょ": 1901,
      "よ": 1902,
      "ら": 1903,
      "り": 1904,
      "る": 1905,
      "れ": 1906,
      "ろ": 1907,
      "わ": 1908,
      "ゑ": 1909,
      "を": 1910,
      "ん": 1911,
      "ァ": 1912,
      "ア": 1913,
      "ィ": 1914,
      "イ": 1915,
      "ゥ": 1916,
      "ウ": 1917,
      "ェ": 1918,
      "エ": 1919,
      "ォ": 1920,
      "オ": 1921,
      "カ": 1922,
      "ガ": 1923,
      "キ": 1924,
      "ギ": 1925,
      "ク": 1926,
      "グ": 1927,
      "ケ": 1928,
      "ゲ": 1929,
      "コ": 1930,
      "ゴ": 1931,
      "サ": 1932,
      "ザ": 1933,
      "シ": 1934,
      "ジ": 1935,
      "ス": 1936,
      "ズ": 1937,
      "セ": 1938,
      "ゼ": 1939,
      "ソ": 1940,
      "ゾ": 1941,
      "タ": 1942,
      "ダ": 1943,
      "チ": 1944,
      "ヂ": 1945,
      "ッ": 1946,
      "ツ": 1947,
      "ヅ": 1948,
      "テ": 1949,
      "デ": 1950,
      "ト": 1951,
      "ド": 1952,
      "ナ": 1953,
      "ニ": 1954,
      "ヌ": 1955,
      "ネ": 1956,
      "ノ": 1957,
      "ハ": 1958,
      "バ": 1959,
      "パ": 1960,
      "ヒ": 1961,
      "ビ": 1962,
      "ピ": 1963,
      "フ": 1964,
      "ブ": 1965,
      "プ": 1966,
      "ヘ": 1967,
      "ベ": 1968,
      "ペ": 1969,
      "ホ": 1970,
      "ボ": 1971,
      "ポ": 1972,
      "マ": 1973,
      "ミ": 1974,
      "ム": 1975,
      "メ": 1976,
      "モ": 1977,
      "ャ": 1978,
      "ヤ": 1979,
      "ュ": 1980,
      "ユ": 1981,
      "ョ": 1982,
      "ヨ": 1983,
      "ラ": 1984,
      "リ": 1985,
      "ル": 1986,
      "レ": 1987,
      "ロ": 1988,
      "ワ": 1989,
      "ヲ": 1990,
      "ン": 1991,
      "ヴ": 1992,
      "ヶ": 1993,
      "・": 1994,
      "ー": 1995,
      "一": 1996,
      "丁": 1997,
      "七": 1998,
      "万": 1999,
      "丈": 2000,
      "三": 2001,
      "上": 2002,
      "下": 2003,
      "不": 2004,
      "与": 2005,
      "丑": 2006,
      "且": 2007,
      "世": 2008,
      "丘": 2009,
      "丙": 2010,
      "东": 2011,
      "丝": 2012,
      "丞": 2013,
      "両": 2014,
      "丨": 2015,
      "个": 2016,
      "中": 2017,
      "丶": 2018,
      "丸": 2019,
      "丹": 2020,
      "为": 2021,
      "主": 2022,
      "丽": 2023,
      "丿": 2024,
      "乃": 2025,
      "久": 2026,
      "么": 2027,
      "义": 2028,
      "之": 2029,
      "乌": 2030,
      "乎": 2031,
      "乐": 2032,
      "乘": 2033,
      "乙": 2034,
      "乚": 2035,
      "乛": 2036,
      "九": 2037,
      "也": 2038,
      "习": 2039,
      "书": 2040,
      "乩": 2041,
      "买": 2042,
      "乱": 2043,
      "乳": 2044,
      "乾": 2045,
      "亀": 2046,
      "亅": 2047,
      "了": 2048,
      "予": 2049,
      "争": 2050,
      "事": 2051,
      "二": 2052,
      "云": 2053,
      "五": 2054,
      "井": 2055,
      "亚": 2056,
      "些": 2057,
      "亜": 2058,
      "亞": 2059,
      "亡": 2060,
      "交": 2061,
      "亦": 2062,
      "亨": 2063,
      "京": 2064,
      "亮": 2065,
      "亰": 2066,
      "人": 2067,
      "什": 2068,
      "仁": 2069,
      "仇": 2070,
      "今": 2071,
      "介": 2072,
      "仔": 2073,
      "仕": 2074,
      "他": 2075,
      "付": 2076,
      "仙": 2077,
      "代": 2078,
      "令": 2079,
      "以": 2080,
      "仪": 2081,
      "们": 2082,
      "仮": 2083,
      "仰": 2084,
      "仲": 2085,
      "件": 2086,
      "任": 2087,
      "份": 2088,
      "伊": 2089,
      "伏": 2090,
      "伐": 2091,
      "休": 2092,
      "会": 2093,
      "伝": 2094,
      "伟": 2095,
      "传": 2096,
      "伪": 2097,
      "伯": 2098,
      "伴": 2099,
      "伸": 2100,
      "似": 2101,
      "佃": 2102,
      "但": 2103,
      "位": 2104,
      "住": 2105,
      "佐": 2106,
      "佑": 2107,
      "体": 2108,
      "何": 2109,
      "余": 2110,
      "佛": 2111,
      "作": 2112,
      "你": 2113,
      "佳": 2114,
      "併": 2115,
      "使": 2116,
      "來": 2117,
      "例": 2118,
      "侍": 2119,
      "侗": 2120,
      "供": 2121,
      "依": 2122,
      "侠": 2123,
      "侨": 2124,
      "侬": 2125,
      "侯": 2126,
      "係": 2127,
      "促": 2128,
      "俄": 2129,
      "俊": 2130,
      "保": 2131,
      "信": 2132,
      "俭": 2133,
      "修": 2134,
      "俱": 2135,
      "俳": 2136,
      "倉": 2137,
      "個": 2138,
      "們": 2139,
      "候": 2140,
      "借": 2141,
      "倪": 2142,
      "倫": 2143,
      "倭": 2144,
      "偃": 2145,
      "假": 2146,
      "偏": 2147,
      "健": 2148,
      "側": 2149,
      "偵": 2150,
      "偽": 2151,
      "傀": 2152,
      "傅": 2153,
      "傑": 2154,
      "傘": 2155,
      "備": 2156,
      "催": 2157,
      "傭": 2158,
      "傳": 2159,
      "傷": 2160,
      "像": 2161,
      "僑": 2162,
      "僕": 2163,
      "僧": 2164,
      "儀": 2165,
      "億": 2166,
      "儒": 2167,
      "儚": 2168,
      "儡": 2169,
      "優": 2170,
      "儿": 2171,
      "允": 2172,
      "元": 2173,
      "充": 2174,
      "兆": 2175,
      "先": 2176,
      "光": 2177,
      "克": 2178,
      "免": 2179,
      "兒": 2180,
      "兔": 2181,
      "兜": 2182,
      "入": 2183,
      "內": 2184,
      "全": 2185,
      "兩": 2186,
      "八": 2187,
      "公": 2188,
      "六": 2189,
      "兰": 2190,
      "共": 2191,
      "关": 2192,
      "兵": 2193,
      "其": 2194,
      "具": 2195,
      "典": 2196,
      "养": 2197,
      "冀": 2198,
      "内": 2199,
      "円": 2200,
      "冉": 2201,
      "册": 2202,
      "再": 2203,
      "冒": 2204,
      "写": 2205,
      "军": 2206,
      "冠": 2207,
      "冥": 2208,
      "冫": 2209,
      "冬": 2210,
      "冯": 2211,
      "决": 2212,
      "冴": 2213,
      "冶": 2214,
      "冷": 2215,
      "净": 2216,
      "准": 2217,
      "凌": 2218,
      "凤": 2219,
      "処": 2220,
      "凪": 2221,
      "凯": 2222,
      "凰": 2223,
      "凱": 2224,
      "凶": 2225,
      "凹": 2226,
      "出": 2227,
      "刀": 2228,
      "刃": 2229,
      "分": 2230,
      "切": 2231,
      "刊": 2232,
      "划": 2233,
      "列": 2234,
      "刘": 2235,
      "初": 2236,
      "判": 2237,
      "別": 2238,
      "利": 2239,
      "别": 2240,
      "到": 2241,
      "制": 2242,
      "刷": 2243,
      "券": 2244,
      "刹": 2245,
      "刺": 2246,
      "刻": 2247,
      "則": 2248,
      "前": 2249,
      "剑": 2250,
      "剛": 2251,
      "剣": 2252,
      "剧": 2253,
      "剩": 2254,
      "副": 2255,
      "割": 2256,
      "創": 2257,
      "劃": 2258,
      "劇": 2259,
      "劉": 2260,
      "劍": 2261,
      "力": 2262,
      "办": 2263,
      "功": 2264,
      "加": 2265,
      "劣": 2266,
      "动": 2267,
      "助": 2268,
      "劳": 2269,
      "勃": 2270,
      "勅": 2271,
      "勇": 2272,
      "勒": 2273,
      "動": 2274,
      "勘": 2275,
      "務": 2276,
      "勝": 2277,
      "勞": 2278,
      "勢": 2279,
      "勳": 2280,
      "勾": 2281,
      "包": 2282,
      "化": 2283,
      "北": 2284,
      "匠": 2285,
      "匹": 2286,
      "区": 2287,
      "医": 2288,
      "區": 2289,
      "十": 2290,
      "千": 2291,
      "升": 2292,
      "午": 2293,
      "半": 2294,
      "华": 2295,
      "协": 2296,
      "卐": 2297,
      "卒": 2298,
      "卓": 2299,
      "協": 2300,
      "单": 2301,
      "卖": 2302,
      "南": 2303,
      "博": 2304,
      "卜": 2305,
      "占": 2306,
      "卡": 2307,
      "卢": 2308,
      "卦": 2309,
      "卫": 2310,
      "印": 2311,
      "危": 2312,
      "即": 2313,
      "却": 2314,
      "卸": 2315,
      "卿": 2316,
      "厂": 2317,
      "厄": 2318,
      "历": 2319,
      "厘": 2320,
      "厚": 2321,
      "原": 2322,
      "厥": 2323,
      "厦": 2324,
      "厩": 2325,
      "去": 2326,
      "县": 2327,
      "参": 2328,
      "參": 2329,
      "叉": 2330,
      "及": 2331,
      "友": 2332,
      "双": 2333,
      "反": 2334,
      "収": 2335,
      "发": 2336,
      "叔": 2337,
      "取": 2338,
      "受": 2339,
      "变": 2340,
      "叛": 2341,
      "叠": 2342,
      "叡": 2343,
      "叢": 2344,
      "口": 2345,
      "古": 2346,
      "句": 2347,
      "只": 2348,
      "叫": 2349,
      "召": 2350,
      "可": 2351,
      "台": 2352,
      "史": 2353,
      "右": 2354,
      "叶": 2355,
      "号": 2356,
      "司": 2357,
      "合": 2358,
      "吉": 2359,
      "同": 2360,
      "名": 2361,
      "后": 2362,
      "向": 2363,
      "吕": 2364,
      "君": 2365,
      "吞": 2366,
      "吟": 2367,
      "吧": 2368,
      "启": 2369,
      "吳": 2370,
      "吴": 2371,
      "吸": 2372,
      "吹": 2373,
      "吾": 2374,
      "呂": 2375,
      "呉": 2376,
      "告": 2377,
      "周": 2378,
      "呪": 2379,
      "味": 2380,
      "呼": 2381,
      "命": 2382,
      "咆": 2383,
      "和": 2384,
      "咖": 2385,
      "咙": 2386,
      "咫": 2387,
      "咲": 2388,
      "咸": 2389,
      "哀": 2390,
      "品": 2391,
      "哈": 2392,
      "哉": 2393,
      "响": 2394,
      "員": 2395,
      "哥": 2396,
      "哮": 2397,
      "哲": 2398,
      "唄": 2399,
      "唐": 2400,
      "唯": 2401,
      "唱": 2402,
      "商": 2403,
      "問": 2404,
      "啓": 2405,
      "啟": 2406,
      "啡": 2407,
      "善": 2408,
      "喇": 2409,
      "喋": 2410,
      "喚": 2411,
      "喜": 2412,
      "喝": 2413,
      "喬": 2414,
      "嘉": 2415,
      "嘘": 2416,
      "噛": 2417,
      "器": 2418,
      "嚣": 2419,
      "嚴": 2420,
      "囁": 2421,
      "囂": 2422,
      "囃": 2423,
      "囚": 2424,
      "四": 2425,
      "回": 2426,
      "因": 2427,
      "团": 2428,
      "団": 2429,
      "図": 2430,
      "国": 2431,
      "图": 2432,
      "圈": 2433,
      "國": 2434,
      "圍": 2435,
      "圏": 2436,
      "園": 2437,
      "圓": 2438,
      "圖": 2439,
      "土": 2440,
      "圣": 2441,
      "圧": 2442,
      "在": 2443,
      "地": 2444,
      "圻": 2445,
      "坂": 2446,
      "均": 2447,
      "坊": 2448,
      "坑": 2449,
      "块": 2450,
      "坚": 2451,
      "坝": 2452,
      "坡": 2453,
      "坤": 2454,
      "坪": 2455,
      "型": 2456,
      "垣": 2457,
      "城": 2458,
      "埔": 2459,
      "域": 2460,
      "執": 2461,
      "培": 2462,
      "基": 2463,
      "堀": 2464,
      "堂": 2465,
      "堅": 2466,
      "堆": 2467,
      "堡": 2468,
      "堤": 2469,
      "堯": 2470,
      "報": 2471,
      "場": 2472,
      "塊": 2473,
      "塔": 2474,
      "塘": 2475,
      "塚": 2476,
      "塞": 2477,
      "塩": 2478,
      "填": 2479,
      "塵": 2480,
      "境": 2481,
      "墓": 2482,
      "墙": 2483,
      "增": 2484,
      "壁": 2485,
      "壌": 2486,
      "壓": 2487,
      "壟": 2488,
      "壤": 2489,
      "士": 2490,
      "壬": 2491,
      "壮": 2492,
      "壯": 2493,
      "声": 2494,
      "壱": 2495,
      "売": 2496,
      "壳": 2497,
      "壷": 2498,
      "壽": 2499,
      "处": 2500,
      "备": 2501,
      "変": 2502,
      "复": 2503,
      "夏": 2504,
      "夕": 2505,
      "外": 2506,
      "多": 2507,
      "夜": 2508,
      "够": 2509,
      "夢": 2510,
      "夤": 2511,
      "大": 2512,
      "天": 2513,
      "太": 2514,
      "夫": 2515,
      "央": 2516,
      "失": 2517,
      "头": 2518,
      "夷": 2519,
      "奇": 2520,
      "奈": 2521,
      "奉": 2522,
      "奎": 2523,
      "奏": 2524,
      "奐": 2525,
      "契": 2526,
      "奔": 2527,
      "奥": 2528,
      "奧": 2529,
      "奪": 2530,
      "女": 2531,
      "奴": 2532,
      "好": 2533,
      "如": 2534,
      "妃": 2535,
      "妇": 2536,
      "妍": 2537,
      "妖": 2538,
      "妙": 2539,
      "妮": 2540,
      "妹": 2541,
      "妻": 2542,
      "姉": 2543,
      "姊": 2544,
      "始": 2545,
      "姑": 2546,
      "委": 2547,
      "姚": 2548,
      "姥": 2549,
      "姦": 2550,
      "姫": 2551,
      "姬": 2552,
      "姿": 2553,
      "威": 2554,
      "娘": 2555,
      "娜": 2556,
      "婁": 2557,
      "婆": 2558,
      "婚": 2559,
      "婷": 2560,
      "嫁": 2561,
      "嬢": 2562,
      "嬴": 2563,
      "子": 2564,
      "孔": 2565,
      "字": 2566,
      "存": 2567,
      "孙": 2568,
      "孛": 2569,
      "孝": 2570,
      "孟": 2571,
      "季": 2572,
      "孤": 2573,
      "学": 2574,
      "孩": 2575,
      "孫": 2576,
      "孵": 2577,
      "學": 2578,
      "宁": 2579,
      "宅": 2580,
      "宇": 2581,
      "守": 2582,
      "安": 2583,
      "宋": 2584,
      "完": 2585,
      "宏": 2586,
      "宗": 2587,
      "官": 2588,
      "宙": 2589,
      "定": 2590,
      "宜": 2591,
      "宝": 2592,
      "实": 2593,
      "実": 2594,
      "客": 2595,
      "宣": 2596,
      "室": 2597,
      "宫": 2598,
      "宮": 2599,
      "宴": 2600,
      "宵": 2601,
      "家": 2602,
      "宸": 2603,
      "容": 2604,
      "宿": 2605,
      "寂": 2606,
      "寄": 2607,
      "密": 2608,
      "寇": 2609,
      "富": 2610,
      "寔": 2611,
      "寗": 2612,
      "寛": 2613,
      "寝": 2614,
      "寞": 2615,
      "察": 2616,
      "寧": 2617,
      "寨": 2618,
      "審": 2619,
      "寬": 2620,
      "寵": 2621,
      "寶": 2622,
      "寸": 2623,
      "对": 2624,
      "寺": 2625,
      "寻": 2626,
      "対": 2627,
      "寿": 2628,
      "封": 2629,
      "射": 2630,
      "将": 2631,
      "將": 2632,
      "尉": 2633,
      "尊": 2634,
      "尋": 2635,
      "對": 2636,
      "導": 2637,
      "小": 2638,
      "少": 2639,
      "尔": 2640,
      "尚": 2641,
      "尧": 2642,
      "就": 2643,
      "尸": 2644,
      "尹": 2645,
      "尺": 2646,
      "尼": 2647,
      "尽": 2648,
      "尾": 2649,
      "局": 2650,
      "居": 2651,
      "届": 2652,
      "屋": 2653,
      "屍": 2654,
      "屑": 2655,
      "展": 2656,
      "屠": 2657,
      "層": 2658,
      "屬": 2659,
      "屯": 2660,
      "山": 2661,
      "屿": 2662,
      "岐": 2663,
      "岑": 2664,
      "岚": 2665,
      "岛": 2666,
      "岡": 2667,
      "岩": 2668,
      "岬": 2669,
      "岭": 2670,
      "岳": 2671,
      "岸": 2672,
      "峰": 2673,
      "島": 2674,
      "崇": 2675,
      "崎": 2676,
      "崔": 2677,
      "崖": 2678,
      "嵐": 2679,
      "嶋": 2680,
      "嶺": 2681,
      "嶼": 2682,
      "巂": 2683,
      "巖": 2684,
      "川": 2685,
      "州": 2686,
      "巡": 2687,
      "工": 2688,
      "左": 2689,
      "巨": 2690,
      "巫": 2691,
      "差": 2692,
      "己": 2693,
      "巳": 2694,
      "巴": 2695,
      "巻": 2696,
      "币": 2697,
      "市": 2698,
      "布": 2699,
      "帆": 2700,
      "师": 2701,
      "希": 2702,
      "帕": 2703,
      "帖": 2704,
      "帝": 2705,
      "帥": 2706,
      "带": 2707,
      "師": 2708,
      "帮": 2709,
      "帰": 2710,
      "帶": 2711,
      "常": 2712,
      "幕": 2713,
      "幡": 2714,
      "幣": 2715,
      "干": 2716,
      "平": 2717,
      "年": 2718,
      "幸": 2719,
      "幻": 2720,
      "幽": 2721,
      "广": 2722,
      "庁": 2723,
      "広": 2724,
      "庄": 2725,
      "庆": 2726,
      "庇": 2727,
      "序": 2728,
      "库": 2729,
      "底": 2730,
      "庖": 2731,
      "店": 2732,
      "庙": 2733,
      "庚": 2734,
      "府": 2735,
      "度": 2736,
      "座": 2737,
      "庫": 2738,
      "庭": 2739,
      "庵": 2740,
      "康": 2741,
      "廉": 2742,
      "廊": 2743,
      "廖": 2744,
      "廟": 2745,
      "廣": 2746,
      "廬": 2747,
      "延": 2748,
      "廷": 2749,
      "建": 2750,
      "廻": 2751,
      "廿": 2752,
      "开": 2753,
      "弁": 2754,
      "式": 2755,
      "弐": 2756,
      "弓": 2757,
      "弔": 2758,
      "引": 2759,
      "弘": 2760,
      "弟": 2761,
      "张": 2762,
      "弥": 2763,
      "弦": 2764,
      "弧": 2765,
      "弱": 2766,
      "張": 2767,
      "強": 2768,
      "弹": 2769,
      "强": 2770,
      "弾": 2771,
      "彌": 2772,
      "当": 2773,
      "录": 2774,
      "彖": 2775,
      "彙": 2776,
      "形": 2777,
      "彦": 2778,
      "彩": 2779,
      "彪": 2780,
      "彬": 2781,
      "彭": 2782,
      "影": 2783,
      "役": 2784,
      "彼": 2785,
      "征": 2786,
      "径": 2787,
      "待": 2788,
      "律": 2789,
      "後": 2790,
      "徐": 2791,
      "徒": 2792,
      "得": 2793,
      "從": 2794,
      "御": 2795,
      "復": 2796,
      "微": 2797,
      "徳": 2798,
      "德": 2799,
      "徹": 2800,
      "徽": 2801,
      "心": 2802,
      "必": 2803,
      "忍": 2804,
      "志": 2805,
      "忘": 2806,
      "応": 2807,
      "忠": 2808,
      "快": 2809,
      "念": 2810,
      "怀": 2811,
      "怎": 2812,
      "怒": 2813,
      "怖": 2814,
      "思": 2815,
      "怡": 2816,
      "急": 2817,
      "性": 2818,
      "怨": 2819,
      "怪": 2820,
      "总": 2821,
      "恆": 2822,
      "恋": 2823,
      "恐": 2824,
      "恒": 2825,
      "恢": 2826,
      "恥": 2827,
      "恩": 2828,
      "恭": 2829,
      "息": 2830,
      "恵": 2831,
      "恼": 2832,
      "悔": 2833,
      "悟": 2834,
      "悠": 2835,
      "悦": 2836,
      "悪": 2837,
      "悫": 2838,
      "悲": 2839,
      "悼": 2840,
      "情": 2841,
      "惑": 2842,
      "惟": 2843,
      "惠": 2844,
      "惡": 2845,
      "想": 2846,
      "愁": 2847,
      "愍": 2848,
      "意": 2849,
      "愚": 2850,
      "愛": 2851,
      "感": 2852,
      "愽": 2853,
      "慈": 2854,
      "態": 2855,
      "慎": 2856,
      "慧": 2857,
      "慰": 2858,
      "慶": 2859,
      "憂": 2860,
      "憎": 2861,
      "憑": 2862,
      "憲": 2863,
      "憶": 2864,
      "應": 2865,
      "懍": 2866,
      "懷": 2867,
      "戈": 2868,
      "戊": 2869,
      "戎": 2870,
      "成": 2871,
      "我": 2872,
      "战": 2873,
      "戦": 2874,
      "戯": 2875,
      "戰": 2876,
      "戴": 2877,
      "户": 2878,
      "戸": 2879,
      "房": 2880,
      "所": 2881,
      "扁": 2882,
      "扇": 2883,
      "扈": 2884,
      "扉": 2885,
      "手": 2886,
      "才": 2887,
      "打": 2888,
      "托": 2889,
      "扶": 2890,
      "找": 2891,
      "承": 2892,
      "技": 2893,
      "抄": 2894,
      "抓": 2895,
      "投": 2896,
      "抜": 2897,
      "択": 2898,
      "护": 2899,
      "报": 2900,
      "披": 2901,
      "抱": 2902,
      "抵": 2903,
      "担": 2904,
      "拉": 2905,
      "拍": 2906,
      "拏": 2907,
      "拐": 2908,
      "拖": 2909,
      "拘": 2910,
      "招": 2911,
      "拜": 2912,
      "拟": 2913,
      "拥": 2914,
      "括": 2915,
      "拳": 2916,
      "拾": 2917,
      "持": 2918,
      "挂": 2919,
      "指": 2920,
      "挑": 2921,
      "挥": 2922,
      "振": 2923,
      "据": 2924,
      "捷": 2925,
      "授": 2926,
      "掛": 2927,
      "採": 2928,
      "探": 2929,
      "控": 2930,
      "掲": 2931,
      "描": 2932,
      "提": 2933,
      "揚": 2934,
      "換": 2935,
      "援": 2936,
      "揺": 2937,
      "摂": 2938,
      "摩": 2939,
      "摸": 2940,
      "撃": 2941,
      "撒": 2942,
      "撞": 2943,
      "播": 2944,
      "撲": 2945,
      "操": 2946,
      "攝": 2947,
      "支": 2948,
      "收": 2949,
      "改": 2950,
      "攻": 2951,
      "放": 2952,
      "政": 2953,
      "故": 2954,
      "敏": 2955,
      "救": 2956,
      "教": 2957,
      "敢": 2958,
      "散": 2959,
      "敦": 2960,
      "敬": 2961,
      "数": 2962,
      "敵": 2963,
      "敷": 2964,
      "數": 2965,
      "文": 2966,
      "斉": 2967,
      "斎": 2968,
      "斗": 2969,
      "料": 2970,
      "斜": 2971,
      "斤": 2972,
      "斩": 2973,
      "斬": 2974,
      "断": 2975,
      "斯": 2976,
      "新": 2977,
      "方": 2978,
      "於": 2979,
      "施": 2980,
      "旅": 2981,
      "旋": 2982,
      "族": 2983,
      "旗": 2984,
      "无": 2985,
      "日": 2986,
      "旦": 2987,
      "旧": 2988,
      "早": 2989,
      "旭": 2990,
      "时": 2991,
      "旺": 2992,
      "昂": 2993,
      "昇": 2994,
      "昌": 2995,
      "明": 2996,
      "昏": 2997,
      "易": 2998,
      "昔": 2999,
      "星": 3000,
      "映": 3001,
      "春": 3002,
      "昭": 3003,
      "是": 3004,
      "昼": 3005,
      "時": 3006,
      "晉": 3007,
      "晋": 3008,
      "晒": 3009,
      "普": 3010,
      "景": 3011,
      "晴": 3012,
      "晶": 3013,
      "智": 3014,
      "暁": 3015,
      "暂": 3016,
      "暖": 3017,
      "暗": 3018,
      "暦": 3019,
      "暮": 3020,
      "暴": 3021,
      "曆": 3022,
      "曜": 3023,
      "曦": 3024,
      "曲": 3025,
      "更": 3026,
      "書": 3027,
      "曹": 3028,
      "曼": 3029,
      "曾": 3030,
      "最": 3031,
      "會": 3032,
      "月": 3033,
      "有": 3034,
      "朋": 3035,
      "服": 3036,
      "朏": 3037,
      "朔": 3038,
      "朗": 3039,
      "望": 3040,
      "朝": 3041,
      "期": 3042,
      "朧": 3043,
      "木": 3044,
      "未": 3045,
      "末": 3046,
      "本": 3047,
      "札": 3048,
      "朱": 3049,
      "朴": 3050,
      "朵": 3051,
      "机": 3052,
      "朽": 3053,
      "杀": 3054,
      "杂": 3055,
      "权": 3056,
      "李": 3057,
      "杏": 3058,
      "材": 3059,
      "村": 3060,
      "杖": 3061,
      "杜": 3062,
      "束": 3063,
      "条": 3064,
      "来": 3065,
      "杨": 3066,
      "杯": 3067,
      "東": 3068,
      "杲": 3069,
      "松": 3070,
      "板": 3071,
      "极": 3072,
      "析": 3073,
      "林": 3074,
      "枚": 3075,
      "果": 3076,
      "枝": 3077,
      "枭": 3078,
      "枯": 3079,
      "架": 3080,
      "柆": 3081,
      "柏": 3082,
      "柔": 3083,
      "柚": 3084,
      "柩": 3085,
      "柱": 3086,
      "柳": 3087,
      "柴": 3088,
      "査": 3089,
      "栄": 3090,
      "标": 3091,
      "栈": 3092,
      "树": 3093,
      "栖": 3094,
      "栗": 3095,
      "栞": 3096,
      "校": 3097,
      "株": 3098,
      "样": 3099,
      "核": 3100,
      "根": 3101,
      "格": 3102,
      "栽": 3103,
      "栾": 3104,
      "桀": 3105,
      "桂": 3106,
      "桃": 3107,
      "案": 3108,
      "桎": 3109,
      "桐": 3110,
      "桑": 3111,
      "桓": 3112,
      "桜": 3113,
      "桥": 3114,
      "桧": 3115,
      "梁": 3116,
      "梅": 3117,
      "梏": 3118,
      "梓": 3119,
      "條": 3120,
      "梦": 3121,
      "梨": 3122,
      "梭": 3123,
      "梯": 3124,
      "械": 3125,
      "梵": 3126,
      "梶": 3127,
      "棋": 3128,
      "棍": 3129,
      "棗": 3130,
      "棘": 3131,
      "棚": 3132,
      "棟": 3133,
      "森": 3134,
      "棲": 3135,
      "棵": 3136,
      "棺": 3137,
      "椅": 3138,
      "植": 3139,
      "椎": 3140,
      "椒": 3141,
      "椛": 3142,
      "検": 3143,
      "椰": 3144,
      "椿": 3145,
      "楊": 3146,
      "楚": 3147,
      "楠": 3148,
      "業": 3149,
      "楯": 3150,
      "極": 3151,
      "楼": 3152,
      "楽": 3153,
      "概": 3154,
      "榆": 3155,
      "榊": 3156,
      "榔": 3157,
      "榛": 3158,
      "榮": 3159,
      "榴": 3160,
      "槐": 3161,
      "様": 3162,
      "槤": 3163,
      "槻": 3164,
      "樂": 3165,
      "樉": 3166,
      "樊": 3167,
      "樓": 3168,
      "樗": 3169,
      "標": 3170,
      "樛": 3171,
      "模": 3172,
      "権": 3173,
      "横": 3174,
      "樱": 3175,
      "樸": 3176,
      "樹": 3177,
      "橋": 3178,
      "橘": 3179,
      "橚": 3180,
      "機": 3181,
      "橫": 3182,
      "橿": 3183,
      "檀": 3184,
      "檜": 3185,
      "檳": 3186,
      "檻": 3187,
      "櫓": 3188,
      "櫻": 3189,
      "權": 3190,
      "欒": 3191,
      "欠": 3192,
      "次": 3193,
      "欣": 3194,
      "欲": 3195,
      "欽": 3196,
      "歌": 3197,
      "歓": 3198,
      "歡": 3199,
      "止": 3200,
      "正": 3201,
      "步": 3202,
      "武": 3203,
      "歩": 3204,
      "歪": 3205,
      "歲": 3206,
      "歳": 3207,
      "歴": 3208,
      "歷": 3209,
      "歸": 3210,
      "死": 3211,
      "殊": 3212,
      "残": 3213,
      "段": 3214,
      "殺": 3215,
      "殻": 3216,
      "殿": 3217,
      "毅": 3218,
      "母": 3219,
      "毎": 3220,
      "每": 3221,
      "比": 3222,
      "毕": 3223,
      "毘": 3224,
      "毛": 3225,
      "毫": 3226,
      "毬": 3227,
      "氏": 3228,
      "民": 3229,
      "气": 3230,
      "気": 3231,
      "氣": 3232,
      "水": 3233,
      "氷": 3234,
      "永": 3235,
      "氾": 3236,
      "汇": 3237,
      "汉": 3238,
      "汐": 3239,
      "汗": 3240,
      "汝": 3241,
      "江": 3242,
      "池": 3243,
      "汤": 3244,
      "汪": 3245,
      "汰": 3246,
      "汶": 3247,
      "決": 3248,
      "汽": 3249,
      "沂": 3250,
      "沃": 3251,
      "沈": 3252,
      "沉": 3253,
      "沌": 3254,
      "沐": 3255,
      "沒": 3256,
      "沖": 3257,
      "沙": 3258,
      "沛": 3259,
      "没": 3260,
      "沢": 3261,
      "沫": 3262,
      "河": 3263,
      "沸": 3264,
      "油": 3265,
      "治": 3266,
      "沼": 3267,
      "沽": 3268,
      "泉": 3269,
      "泊": 3270,
      "法": 3271,
      "泗": 3272,
      "泡": 3273,
      "波": 3274,
      "泣": 3275,
      "泥": 3276,
      "注": 3277,
      "泰": 3278,
      "泾": 3279,
      "洁": 3280,
      "洋": 3281,
      "洛": 3282,
      "洞": 3283,
      "津": 3284,
      "洪": 3285,
      "洲": 3286,
      "活": 3287,
      "派": 3288,
      "流": 3289,
      "浅": 3290,
      "浙": 3291,
      "浚": 3292,
      "浜": 3293,
      "浦": 3294,
      "浩": 3295,
      "浪": 3296,
      "浮": 3297,
      "海": 3298,
      "消": 3299,
      "涙": 3300,
      "润": 3301,
      "涵": 3302,
      "涼": 3303,
      "淇": 3304,
      "淑": 3305,
      "淘": 3306,
      "淡": 3307,
      "淨": 3308,
      "深": 3309,
      "淳": 3310,
      "淵": 3311,
      "淹": 3312,
      "添": 3313,
      "清": 3314,
      "渊": 3315,
      "渚": 3316,
      "減": 3317,
      "渠": 3318,
      "渡": 3319,
      "渣": 3320,
      "渥": 3321,
      "渦": 3322,
      "温": 3323,
      "測": 3324,
      "港": 3325,
      "游": 3326,
      "渾": 3327,
      "湊": 3328,
      "湖": 3329,
      "湯": 3330,
      "湾": 3331,
      "満": 3332,
      "源": 3333,
      "準": 3334,
      "溜": 3335,
      "溢": 3336,
      "溪": 3337,
      "溫": 3338,
      "溶": 3339,
      "滅": 3340,
      "滋": 3341,
      "滑": 3342,
      "滨": 3343,
      "滿": 3344,
      "漁": 3345,
      "漂": 3346,
      "漆": 3347,
      "漏": 3348,
      "漠": 3349,
      "漢": 3350,
      "漫": 3351,
      "漳": 3352,
      "漸": 3353,
      "潘": 3354,
      "潜": 3355,
      "潤": 3356,
      "澄": 3357,
      "澤": 3358,
      "澪": 3359,
      "激": 3360,
      "濃": 3361,
      "濞": 3362,
      "濟": 3363,
      "瀛": 3364,
      "瀬": 3365,
      "灣": 3366,
      "火": 3367,
      "灯": 3368,
      "灰": 3369,
      "灵": 3370,
      "灶": 3371,
      "灼": 3372,
      "災": 3373,
      "灾": 3374,
      "炎": 3375,
      "炬": 3376,
      "炮": 3377,
      "炯": 3378,
      "炷": 3379,
      "炸": 3380,
      "点": 3381,
      "為": 3382,
      "炼": 3383,
      "烈": 3384,
      "烏": 3385,
      "烙": 3386,
      "烟": 3387,
      "烦": 3388,
      "烧": 3389,
      "焉": 3390,
      "焔": 3391,
      "無": 3392,
      "焦": 3393,
      "然": 3394,
      "焼": 3395,
      "煌": 3396,
      "煙": 3397,
      "煜": 3398,
      "照": 3399,
      "煩": 3400,
      "煮": 3401,
      "熊": 3402,
      "熔": 3403,
      "熙": 3404,
      "熟": 3405,
      "熱": 3406,
      "燃": 3407,
      "燈": 3408,
      "燕": 3409,
      "營": 3410,
      "爆": 3411,
      "爪": 3412,
      "爭": 3413,
      "爱": 3414,
      "爲": 3415,
      "爵": 3416,
      "父": 3417,
      "爺": 3418,
      "爻": 3419,
      "爽": 3420,
      "爾": 3421,
      "片": 3422,
      "版": 3423,
      "牌": 3424,
      "牙": 3425,
      "牛": 3426,
      "牡": 3427,
      "牢": 3428,
      "牧": 3429,
      "物": 3430,
      "牵": 3431,
      "特": 3432,
      "犖": 3433,
      "犬": 3434,
      "犯": 3435,
      "狀": 3436,
      "狂": 3437,
      "狐": 3438,
      "狗": 3439,
      "狛": 3440,
      "狡": 3441,
      "狩": 3442,
      "独": 3443,
      "狭": 3444,
      "狱": 3445,
      "狸": 3446,
      "狼": 3447,
      "猛": 3448,
      "猩": 3449,
      "猪": 3450,
      "猫": 3451,
      "献": 3452,
      "猿": 3453,
      "獄": 3454,
      "獅": 3455,
      "獣": 3456,
      "獵": 3457,
      "獻": 3458,
      "玄": 3459,
      "玉": 3460,
      "王": 3461,
      "玖": 3462,
      "玩": 3463,
      "玲": 3464,
      "珂": 3465,
      "珍": 3466,
      "珙": 3467,
      "珠": 3468,
      "現": 3469,
      "球": 3470,
      "理": 3471,
      "琦": 3472,
      "琪": 3473,
      "琬": 3474,
      "琮": 3475,
      "琴": 3476,
      "瑋": 3477,
      "瑙": 3478,
      "瑜": 3479,
      "瑞": 3480,
      "瑠": 3481,
      "瑣": 3482,
      "瑪": 3483,
      "瑾": 3484,
      "璉": 3485,
      "環": 3486,
      "璽": 3487,
      "瓊": 3488,
      "瓜": 3489,
      "瓢": 3490,
      "瓦": 3491,
      "瓩": 3492,
      "瓷": 3493,
      "甘": 3494,
      "甜": 3495,
      "生": 3496,
      "產": 3497,
      "産": 3498,
      "用": 3499,
      "甫": 3500,
      "田": 3501,
      "由": 3502,
      "甲": 3503,
      "申": 3504,
      "男": 3505,
      "町": 3506,
      "画": 3507,
      "甽": 3508,
      "界": 3509,
      "畑": 3510,
      "留": 3511,
      "畜": 3512,
      "畢": 3513,
      "略": 3514,
      "番": 3515,
      "畫": 3516,
      "異": 3517,
      "疾": 3518,
      "病": 3519,
      "症": 3520,
      "痘": 3521,
      "痛": 3522,
      "痴": 3523,
      "瘡": 3524,
      "瘤": 3525,
      "発": 3526,
      "登": 3527,
      "發": 3528,
      "白": 3529,
      "百": 3530,
      "的": 3531,
      "皇": 3532,
      "皙": 3533,
      "皮": 3534,
      "皿": 3535,
      "盆": 3536,
      "盈": 3537,
      "益": 3538,
      "盏": 3539,
      "盐": 3540,
      "监": 3541,
      "盒": 3542,
      "盗": 3543,
      "盘": 3544,
      "盛": 3545,
      "盟": 3546,
      "監": 3547,
      "盤": 3548,
      "盧": 3549,
      "目": 3550,
      "直": 3551,
      "相": 3552,
      "盼": 3553,
      "省": 3554,
      "看": 3555,
      "県": 3556,
      "眞": 3557,
      "真": 3558,
      "眼": 3559,
      "着": 3560,
      "督": 3561,
      "瞬": 3562,
      "瞳": 3563,
      "矢": 3564,
      "知": 3565,
      "矩": 3566,
      "短": 3567,
      "矮": 3568,
      "矯": 3569,
      "石": 3570,
      "砂": 3571,
      "砍": 3572,
      "研": 3573,
      "砖": 3574,
      "砲": 3575,
      "破": 3576,
      "硕": 3577,
      "硝": 3578,
      "硨": 3579,
      "碍": 3580,
      "碗": 3581,
      "碩": 3582,
      "確": 3583,
      "碼": 3584,
      "磁": 3585,
      "磅": 3586,
      "磐": 3587,
      "磨": 3588,
      "磯": 3589,
      "磲": 3590,
      "礁": 3591,
      "礎": 3592,
      "礮": 3593,
      "示": 3594,
      "礼": 3595,
      "社": 3596,
      "祀": 3597,
      "祈": 3598,
      "祐": 3599,
      "祖": 3600,
      "祚": 3601,
      "神": 3602,
      "祠": 3603,
      "祥": 3604,
      "票": 3605,
      "祭": 3606,
      "祺": 3607,
      "祿": 3608,
      "禁": 3609,
      "禄": 3610,
      "禎": 3611,
      "福": 3612,
      "禦": 3613,
      "禮": 3614,
      "禰": 3615,
      "禺": 3616,
      "禾": 3617,
      "秀": 3618,
      "私": 3619,
      "秋": 3620,
      "科": 3621,
      "秒": 3622,
      "秘": 3623,
      "租": 3624,
      "秤": 3625,
      "秦": 3626,
      "移": 3627,
      "程": 3628,
      "稔": 3629,
      "稚": 3630,
      "種": 3631,
      "稲": 3632,
      "稷": 3633,
      "穂": 3634,
      "穌": 3635,
      "積": 3636,
      "穎": 3637,
      "穗": 3638,
      "穢": 3639,
      "究": 3640,
      "空": 3641,
      "突": 3642,
      "窓": 3643,
      "窗": 3644,
      "窟": 3645,
      "竇": 3646,
      "立": 3647,
      "站": 3648,
      "竜": 3649,
      "章": 3650,
      "童": 3651,
      "端": 3652,
      "竹": 3653,
      "竺": 3654,
      "笑": 3655,
      "笔": 3656,
      "笛": 3657,
      "笠": 3658,
      "符": 3659,
      "笨": 3660,
      "第": 3661,
      "笹": 3662,
      "筆": 3663,
      "等": 3664,
      "筋": 3665,
      "筍": 3666,
      "筐": 3667,
      "筑": 3668,
      "答": 3669,
      "策": 3670,
      "筹": 3671,
      "箇": 3672,
      "算": 3673,
      "管": 3674,
      "箪": 3675,
      "箭": 3676,
      "箱": 3677,
      "節": 3678,
      "範": 3679,
      "篇": 3680,
      "篋": 3681,
      "篚": 3682,
      "篤": 3683,
      "簡": 3684,
      "簿": 3685,
      "籃": 3686,
      "籌": 3687,
      "籍": 3688,
      "籠": 3689,
      "米": 3690,
      "籵": 3691,
      "粁": 3692,
      "粉": 3693,
      "粍": 3694,
      "粟": 3695,
      "粥": 3696,
      "粨": 3697,
      "精": 3698,
      "糊": 3699,
      "糎": 3700,
      "糖": 3701,
      "糸": 3702,
      "系": 3703,
      "紀": 3704,
      "約": 3705,
      "紅": 3706,
      "紋": 3707,
      "納": 3708,
      "純": 3709,
      "紘": 3710,
      "紙": 3711,
      "級": 3712,
      "素": 3713,
      "紡": 3714,
      "紫": 3715,
      "細": 3716,
      "紹": 3717,
      "紺": 3718,
      "終": 3719,
      "組": 3720,
      "絆": 3721,
      "経": 3722,
      "結": 3723,
      "絡": 3724,
      "給": 3725,
      "統": 3726,
      "絵": 3727,
      "絶": 3728,
      "綁": 3729,
      "經": 3730,
      "継": 3731,
      "続": 3732,
      "綜": 3733,
      "綠": 3734,
      "維": 3735,
      "綯": 3736,
      "綱": 3737,
      "網": 3738,
      "綸": 3739,
      "綺": 3740,
      "綾": 3741,
      "緋": 3742,
      "総": 3743,
      "緑": 3744,
      "緒": 3745,
      "線": 3746,
      "締": 3747,
      "編": 3748,
      "緩": 3749,
      "緯": 3750,
      "縄": 3751,
      "縊": 3752,
      "縣": 3753,
      "總": 3754,
      "繋": 3755,
      "織": 3756,
      "繼": 3757,
      "續": 3758,
      "红": 3759,
      "级": 3760,
      "纪": 3761,
      "纯": 3762,
      "纲": 3763,
      "纵": 3764,
      "线": 3765,
      "组": 3766,
      "绅": 3767,
      "细": 3768,
      "终": 3769,
      "绍": 3770,
      "经": 3771,
      "给": 3772,
      "统": 3773,
      "继": 3774,
      "绮": 3775,
      "维": 3776,
      "综": 3777,
      "缽": 3778,
      "网": 3779,
      "罗": 3780,
      "罠": 3781,
      "罪": 3782,
      "置": 3783,
      "罰": 3784,
      "罸": 3785,
      "羅": 3786,
      "羊": 3787,
      "美": 3788,
      "群": 3789,
      "義": 3790,
      "羽": 3791,
      "翁": 3792,
      "習": 3793,
      "翔": 3794,
      "翘": 3795,
      "翠": 3796,
      "翡": 3797,
      "翱": 3798,
      "翹": 3799,
      "翻": 3800,
      "翼": 3801,
      "老": 3802,
      "考": 3803,
      "者": 3804,
      "耆": 3805,
      "而": 3806,
      "耕": 3807,
      "耳": 3808,
      "耶": 3809,
      "耿": 3810,
      "聃": 3811,
      "联": 3812,
      "聖": 3813,
      "聘": 3814,
      "聚": 3815,
      "聞": 3816,
      "聡": 3817,
      "聯": 3818,
      "聰": 3819,
      "聲": 3820,
      "職": 3821,
      "肃": 3822,
      "肉": 3823,
      "肖": 3824,
      "肚": 3825,
      "股": 3826,
      "肥": 3827,
      "肩": 3828,
      "育": 3829,
      "胞": 3830,
      "胠": 3831,
      "胡": 3832,
      "胤": 3833,
      "胴": 3834,
      "胸": 3835,
      "能": 3836,
      "脂": 3837,
      "脇": 3838,
      "脈": 3839,
      "脉": 3840,
      "脚": 3841,
      "脩": 3842,
      "脱": 3843,
      "脳": 3844,
      "腎": 3845,
      "腐": 3846,
      "腰": 3847,
      "腹": 3848,
      "腿": 3849,
      "膀": 3850,
      "膺": 3851,
      "臂": 3852,
      "臘": 3853,
      "臚": 3854,
      "臣": 3855,
      "臨": 3856,
      "自": 3857,
      "臭": 3858,
      "至": 3859,
      "致": 3860,
      "臺": 3861,
      "與": 3862,
      "興": 3863,
      "舍": 3864,
      "舎": 3865,
      "舞": 3866,
      "舟": 3867,
      "航": 3868,
      "船": 3869,
      "艦": 3870,
      "良": 3871,
      "色": 3872,
      "艳": 3873,
      "艶": 3874,
      "艺": 3875,
      "节": 3876,
      "芒": 3877,
      "芙": 3878,
      "芝": 3879,
      "芦": 3880,
      "芬": 3881,
      "芭": 3882,
      "芮": 3883,
      "芯": 3884,
      "花": 3885,
      "芳": 3886,
      "芸": 3887,
      "芹": 3888,
      "芽": 3889,
      "苏": 3890,
      "苑": 3891,
      "苗": 3892,
      "苣": 3893,
      "若": 3894,
      "英": 3895,
      "苺": 3896,
      "茂": 3897,
      "范": 3898,
      "茅": 3899,
      "茜": 3900,
      "茶": 3901,
      "茸": 3902,
      "草": 3903,
      "荊": 3904,
      "荒": 3905,
      "荔": 3906,
      "荘": 3907,
      "荥": 3908,
      "荪": 3909,
      "荫": 3910,
      "药": 3911,
      "荷": 3912,
      "荻": 3913,
      "荼": 3914,
      "莉": 3915,
      "莊": 3916,
      "莎": 3917,
      "莘": 3918,
      "莞": 3919,
      "莫": 3920,
      "莱": 3921,
      "莲": 3922,
      "莴": 3923,
      "菇": 3924,
      "菉": 3925,
      "菊": 3926,
      "菜": 3927,
      "華": 3928,
      "菱": 3929,
      "菲": 3930,
      "萌": 3931,
      "萍": 3932,
      "萝": 3933,
      "营": 3934,
      "萧": 3935,
      "萨": 3936,
      "萬": 3937,
      "落": 3938,
      "葆": 3939,
      "葉": 3940,
      "著": 3941,
      "葛": 3942,
      "董": 3943,
      "葦": 3944,
      "葫": 3945,
      "葵": 3946,
      "蒙": 3947,
      "蒭": 3948,
      "蒲": 3949,
      "蒼": 3950,
      "蒿": 3951,
      "蓀": 3952,
      "蓑": 3953,
      "蓝": 3954,
      "蓮": 3955,
      "蔡": 3956,
      "蔭": 3957,
      "蔵": 3958,
      "蕃": 3959,
      "蕉": 3960,
      "蕨": 3961,
      "蕩": 3962,
      "蕭": 3963,
      "薇": 3964,
      "薊": 3965,
      "薔": 3966,
      "薙": 3967,
      "薛": 3968,
      "薩": 3969,
      "薫": 3970,
      "薯": 3971,
      "藍": 3972,
      "藏": 3973,
      "藕": 3974,
      "藝": 3975,
      "藤": 3976,
      "藥": 3977,
      "藩": 3978,
      "藻": 3979,
      "蘄": 3980,
      "蘅": 3981,
      "蘇": 3982,
      "蘑": 3983,
      "蘭": 3984,
      "虎": 3985,
      "虐": 3986,
      "虔": 3987,
      "處": 3988,
      "虚": 3989,
      "虛": 3990,
      "號": 3991,
      "虫": 3992,
      "虹": 3993,
      "蛇": 3994,
      "蛍": 3995,
      "蛙": 3996,
      "蛭": 3997,
      "蜃": 3998,
      "蜡": 3999,
      "蝉": 4000,
      "蝕": 4001,
      "蝶": 4002,
      "融": 4003,
      "螺": 4004,
      "蟲": 4005,
      "蠕": 4006,
      "蠻": 4007,
      "血": 4008,
      "衆": 4009,
      "行": 4010,
      "術": 4011,
      "街": 4012,
      "衙": 4013,
      "衛": 4014,
      "衝": 4015,
      "衡": 4016,
      "衢": 4017,
      "衣": 4018,
      "补": 4019,
      "表": 4020,
      "袁": 4021,
      "袈": 4022,
      "袖": 4023,
      "被": 4024,
      "裁": 4025,
      "裂": 4026,
      "装": 4027,
      "裏": 4028,
      "裔": 4029,
      "裕": 4030,
      "補": 4031,
      "裟": 4032,
      "裳": 4033,
      "裸": 4034,
      "製": 4035,
      "褒": 4036,
      "襄": 4037,
      "襟": 4038,
      "襲": 4039,
      "西": 4040,
      "要": 4041,
      "覇": 4042,
      "見": 4043,
      "規": 4044,
      "視": 4045,
      "覚": 4046,
      "親": 4047,
      "観": 4048,
      "覺": 4049,
      "觀": 4050,
      "观": 4051,
      "角": 4052,
      "解": 4053,
      "触": 4054,
      "觳": 4055,
      "言": 4056,
      "計": 4057,
      "記": 4058,
      "設": 4059,
      "許": 4060,
      "訳": 4061,
      "証": 4062,
      "詔": 4063,
      "詞": 4064,
      "詠": 4065,
      "試": 4066,
      "詩": 4067,
      "話": 4068,
      "誌": 4069,
      "誐": 4070,
      "誒": 4071,
      "誓": 4072,
      "誕": 4073,
      "誘": 4074,
      "語": 4075,
      "誠": 4076,
      "誡": 4077,
      "誦": 4078,
      "說": 4079,
      "説": 4080,
      "読": 4081,
      "誰": 4082,
      "課": 4083,
      "調": 4084,
      "談": 4085,
      "論": 4086,
      "諭": 4087,
      "諷": 4088,
      "諸": 4089,
      "謀": 4090,
      "謁": 4091,
      "謎": 4092,
      "謙": 4093,
      "講": 4094,
      "謝": 4095,
      "謡": 4096,
      "識": 4097,
      "譚": 4098,
      "譜": 4099,
      "警": 4100,
      "議": 4101,
      "護": 4102,
      "讀": 4103,
      "變": 4104,
      "讐": 4105,
      "讓": 4106,
      "计": 4107,
      "让": 4108,
      "议": 4109,
      "许": 4110,
      "论": 4111,
      "讼": 4112,
      "诉": 4113,
      "词": 4114,
      "诗": 4115,
      "诚": 4116,
      "话": 4117,
      "语": 4118,
      "诶": 4119,
      "请": 4120,
      "诺": 4121,
      "读": 4122,
      "课": 4123,
      "谁": 4124,
      "谦": 4125,
      "谭": 4126,
      "谷": 4127,
      "豆": 4128,
      "豊": 4129,
      "豌": 4130,
      "豐": 4131,
      "豚": 4132,
      "象": 4133,
      "豪": 4134,
      "豫": 4135,
      "豬": 4136,
      "豹": 4137,
      "貓": 4138,
      "貝": 4139,
      "貞": 4140,
      "負": 4141,
      "財": 4142,
      "貫": 4143,
      "貴": 4144,
      "費": 4145,
      "賀": 4146,
      "資": 4147,
      "賈": 4148,
      "賊": 4149,
      "賓": 4150,
      "賞": 4151,
      "賢": 4152,
      "賦": 4153,
      "質": 4154,
      "購": 4155,
      "贈": 4156,
      "贝": 4157,
      "贞": 4158,
      "财": 4159,
      "贤": 4160,
      "质": 4161,
      "贵": 4162,
      "贺": 4163,
      "贼": 4164,
      "资": 4165,
      "赤": 4166,
      "赭": 4167,
      "走": 4168,
      "赵": 4169,
      "起": 4170,
      "超": 4171,
      "越": 4172,
      "趙": 4173,
      "足": 4174,
      "跆": 4175,
      "跑": 4176,
      "跖": 4177,
      "跟": 4178,
      "跡": 4179,
      "路": 4180,
      "跳": 4181,
      "踊": 4182,
      "踏": 4183,
      "踢": 4184,
      "蹴": 4185,
      "身": 4186,
      "車": 4187,
      "軌": 4188,
      "軍": 4189,
      "軒": 4190,
      "転": 4191,
      "軽": 4192,
      "載": 4193,
      "輔": 4194,
      "輛": 4195,
      "輝": 4196,
      "輪": 4197,
      "輿": 4198,
      "轉": 4199,
      "车": 4200,
      "轩": 4201,
      "转": 4202,
      "辆": 4203,
      "辉": 4204,
      "辛": 4205,
      "辣": 4206,
      "辭": 4207,
      "辯": 4208,
      "辰": 4209,
      "農": 4210,
      "边": 4211,
      "辺": 4212,
      "辽": 4213,
      "达": 4214,
      "辿": 4215,
      "迄": 4216,
      "迅": 4217,
      "过": 4218,
      "迈": 4219,
      "运": 4220,
      "近": 4221,
      "返": 4222,
      "这": 4223,
      "进": 4224,
      "远": 4225,
      "迦": 4226,
      "迪": 4227,
      "述": 4228,
      "迷": 4229,
      "追": 4230,
      "送": 4231,
      "适": 4232,
      "逆": 4233,
      "选": 4234,
      "這": 4235,
      "通": 4236,
      "造": 4237,
      "逢": 4238,
      "連": 4239,
      "逯": 4240,
      "週": 4241,
      "進": 4242,
      "遁": 4243,
      "遇": 4244,
      "遊": 4245,
      "運": 4246,
      "遍": 4247,
      "過": 4248,
      "道": 4249,
      "達": 4250,
      "遗": 4251,
      "遙": 4252,
      "遜": 4253,
      "遠": 4254,
      "遥": 4255,
      "遮": 4256,
      "選": 4257,
      "遺": 4258,
      "遼": 4259,
      "避": 4260,
      "邁": 4261,
      "還": 4262,
      "邊": 4263,
      "邑": 4264,
      "邓": 4265,
      "那": 4266,
      "邦": 4267,
      "邪": 4268,
      "邱": 4269,
      "邵": 4270,
      "郁": 4271,
      "郊": 4272,
      "郎": 4273,
      "郑": 4274,
      "郛": 4275,
      "郝": 4276,
      "郡": 4277,
      "部": 4278,
      "郭": 4279,
      "郷": 4280,
      "都": 4281,
      "鄧": 4282,
      "鄭": 4283,
      "酈": 4284,
      "酉": 4285,
      "酒": 4286,
      "酔": 4287,
      "酥": 4288,
      "酱": 4289,
      "酷": 4290,
      "酸": 4291,
      "醋": 4292,
      "醒": 4293,
      "醫": 4294,
      "采": 4295,
      "釈": 4296,
      "釋": 4297,
      "里": 4298,
      "重": 4299,
      "野": 4300,
      "量": 4301,
      "金": 4302,
      "釗": 4303,
      "釣": 4304,
      "鈍": 4305,
      "鈴": 4306,
      "鉄": 4307,
      "鉢": 4308,
      "鉦": 4309,
      "鉱": 4310,
      "鉴": 4311,
      "銀": 4312,
      "銃": 4313,
      "銅": 4314,
      "銓": 4315,
      "銖": 4316,
      "銘": 4317,
      "銳": 4318,
      "鋒": 4319,
      "鋪": 4320,
      "鋼": 4321,
      "錄": 4322,
      "錡": 4323,
      "錦": 4324,
      "錬": 4325,
      "録": 4326,
      "鍋": 4327,
      "鍵": 4328,
      "鎖": 4329,
      "鎧": 4330,
      "鎮": 4331,
      "鏡": 4332,
      "鐘": 4333,
      "鐵": 4334,
      "鐸": 4335,
      "鑒": 4336,
      "钊": 4337,
      "钢": 4338,
      "钦": 4339,
      "钱": 4340,
      "铁": 4341,
      "铎": 4342,
      "铜": 4343,
      "铭": 4344,
      "铺": 4345,
      "锡": 4346,
      "键": 4347,
      "镇": 4348,
      "镗": 4349,
      "镜": 4350,
      "長": 4351,
      "长": 4352,
      "門": 4353,
      "閃": 4354,
      "開": 4355,
      "閏": 4356,
      "閒": 4357,
      "間": 4358,
      "関": 4359,
      "閣": 4360,
      "閨": 4361,
      "闇": 4362,
      "闍": 4363,
      "闕": 4364,
      "闘": 4365,
      "關": 4366,
      "门": 4367,
      "问": 4368,
      "闯": 4369,
      "阁": 4370,
      "阪": 4371,
      "防": 4372,
      "阳": 4373,
      "阿": 4374,
      "陀": 4375,
      "附": 4376,
      "际": 4377,
      "陈": 4378,
      "降": 4379,
      "限": 4380,
      "陛": 4381,
      "院": 4382,
      "陣": 4383,
      "除": 4384,
      "陪": 4385,
      "陳": 4386,
      "陵": 4387,
      "陶": 4388,
      "陸": 4389,
      "険": 4390,
      "陽": 4391,
      "隆": 4392,
      "隊": 4393,
      "階": 4394,
      "隔": 4395,
      "隗": 4396,
      "隠": 4397,
      "隣": 4398,
      "隱": 4399,
      "隴": 4400,
      "隸": 4401,
      "隻": 4402,
      "隼": 4403,
      "雀": 4404,
      "雁": 4405,
      "雄": 4406,
      "雅": 4407,
      "集": 4408,
      "雇": 4409,
      "雉": 4410,
      "雎": 4411,
      "雕": 4412,
      "雙": 4413,
      "雛": 4414,
      "雜": 4415,
      "雞": 4416,
      "離": 4417,
      "難": 4418,
      "雨": 4419,
      "雪": 4420,
      "雲": 4421,
      "雳": 4422,
      "零": 4423,
      "雷": 4424,
      "電": 4425,
      "雾": 4426,
      "需": 4427,
      "霆": 4428,
      "震": 4429,
      "霊": 4430,
      "霍": 4431,
      "霖": 4432,
      "霜": 4433,
      "霞": 4434,
      "霧": 4435,
      "霰": 4436,
      "露": 4437,
      "霸": 4438,
      "霹": 4439,
      "靂": 4440,
      "靈": 4441,
      "青": 4442,
      "靖": 4443,
      "静": 4444,
      "非": 4445,
      "靠": 4446,
      "面": 4447,
      "革": 4448,
      "靴": 4449,
      "靼": 4450,
      "鞋": 4451,
      "鞍": 4452,
      "鞠": 4453,
      "韃": 4454,
      "韋": 4455,
      "韓": 4456,
      "韦": 4457,
      "韩": 4458,
      "韭": 4459,
      "音": 4460,
      "韶": 4461,
      "響": 4462,
      "頃": 4463,
      "項": 4464,
      "順": 4465,
      "須": 4466,
      "頌": 4467,
      "領": 4468,
      "頭": 4469,
      "顆": 4470,
      "題": 4471,
      "額": 4472,
      "顏": 4473,
      "顔": 4474,
      "願": 4475,
      "顯": 4476,
      "项": 4477,
      "顾": 4478,
      "颂": 4479,
      "颊": 4480,
      "颖": 4481,
      "颗": 4482,
      "颜": 4483,
      "風": 4484,
      "颪": 4485,
      "颱": 4486,
      "飄": 4487,
      "风": 4488,
      "飛": 4489,
      "飞": 4490,
      "食": 4491,
      "飯": 4492,
      "飾": 4493,
      "餅": 4494,
      "養": 4495,
      "餓": 4496,
      "館": 4497,
      "饼": 4498,
      "馆": 4499,
      "馒": 4500,
      "首": 4501,
      "香": 4502,
      "馬": 4503,
      "馮": 4504,
      "駆": 4505,
      "駐": 4506,
      "駒": 4507,
      "駙": 4508,
      "駢": 4509,
      "駿": 4510,
      "騎": 4511,
      "騒": 4512,
      "験": 4513,
      "騭": 4514,
      "騰": 4515,
      "騷": 4516,
      "驁": 4517,
      "驚": 4518,
      "驤": 4519,
      "马": 4520,
      "驰": 4521,
      "骨": 4522,
      "骸": 4523,
      "髀": 4524,
      "高": 4525,
      "髪": 4526,
      "鬘": 4527,
      "鬥": 4528,
      "鬪": 4529,
      "鬼": 4530,
      "魂": 4531,
      "魄": 4532,
      "魔": 4533,
      "魚": 4534,
      "魯": 4535,
      "鮑": 4536,
      "鮫": 4537,
      "鮮": 4538,
      "鯖": 4539,
      "鯵": 4540,
      "鰐": 4541,
      "鱀": 4542,
      "鱼": 4543,
      "鲁": 4544,
      "鲤": 4545,
      "鳥": 4546,
      "鳩": 4547,
      "鳳": 4548,
      "鳴": 4549,
      "鳶": 4550,
      "鴉": 4551,
      "鴣": 4552,
      "鴨": 4553,
      "鴻": 4554,
      "鵡": 4555,
      "鵩": 4556,
      "鵬": 4557,
      "鶍": 4558,
      "鶴": 4559,
      "鷓": 4560,
      "鷹": 4561,
      "鷺": 4562,
      "鸚": 4563,
      "鸟": 4564,
      "鸡": 4565,
      "鸭": 4566,
      "鸿": 4567,
      "鹅": 4568,
      "鹹": 4569,
      "鹼": 4570,
      "鹽": 4571,
      "鹿": 4572,
      "麗": 4573,
      "麥": 4574,
      "麵": 4575,
      "麻": 4576,
      "麼": 4577,
      "麾": 4578,
      "黃": 4579,
      "黄": 4580,
      "黎": 4581,
      "黑": 4582,
      "黒": 4583,
      "黙": 4584,
      "黛": 4585,
      "黨": 4586,
      "鼉": 4587,
      "鼎": 4588,
      "鼓": 4589,
      "鼠": 4590,
      "鼻": 4591,
      "齉": 4592,
      "齊": 4593,
      "齋": 4594,
      "齐": 4595,
      "龍": 4596,
      "龙": 4597,
      "ꜛ": 4598,
      "ꜜ": 4599,
      "ꜣ": 4600,
      "ꜩ": 4601,
      "ꜫ": 4602,
      "ꜭ": 4603,
      "ꞅ": 4604,
      "ꞎ": 4605,
      "Ʞ": 4606,
      "ꞵ": 4607,
      "ꦂ": 4608,
      "ꦠ": 4609,
      "ꦯ": 4610,
      "ꦲ": 4611,
      "ꦸ": 4612,
      "ꭓ": 4613,
      "가": 4614,
      "간": 4615,
      "강": 4616,
      "개": 4617,
      "거": 4618,
      "건": 4619,
      "경": 4620,
      "계": 4621,
      "고": 4622,
      "공": 4623,
      "관": 4624,
      "광": 4625,
      "구": 4626,
      "국": 4627,
      "권": 4628,
      "귀": 4629,
      "그": 4630,
      "극": 4631,
      "근": 4632,
      "글": 4633,
      "금": 4634,
      "급": 4635,
      "기": 4636,
      "김": 4637,
      "꺼": 4638,
      "껐": 4639,
      "나": 4640,
      "날": 4641,
      "남": 4642,
      "났": 4643,
      "내": 4644,
      "너": 4645,
      "네": 4646,
      "념": 4647,
      "노": 4648,
      "놔": 4649,
      "눈": 4650,
      "늬": 4651,
      "다": 4652,
      "단": 4653,
      "대": 4654,
      "더": 4655,
      "도": 4656,
      "독": 4657,
      "돌": 4658,
      "동": 4659,
      "디": 4660,
      "딱": 4661,
      "라": 4662,
      "람": 4663,
      "래": 4664,
      "런": 4665,
      "렌": 4666,
      "려": 4667,
      "렬": 4668,
      "로": 4669,
      "록": 4670,
      "론": 4671,
      "루": 4672,
      "류": 4673,
      "르": 4674,
      "를": 4675,
      "리": 4676,
      "립": 4677,
      "마": 4678,
      "막": 4679,
      "만": 4680,
      "말": 4681,
      "명": 4682,
      "목": 4683,
      "무": 4684,
      "문": 4685,
      "물": 4686,
      "미": 4687,
      "민": 4688,
      "믿": 4689,
      "바": 4690,
      "박": 4691,
      "방": 4692,
      "백": 4693,
      "뱅": 4694,
      "버": 4695,
      "범": 4696,
      "법": 4697,
      "별": 4698,
      "병": 4699,
      "보": 4700,
      "복": 4701,
      "봐": 4702,
      "부": 4703,
      "불": 4704,
      "붉": 4705,
      "빅": 4706,
      "빙": 4707,
      "빤": 4708,
      "뿐": 4709,
      "사": 4710,
      "산": 4711,
      "살": 4712,
      "삼": 4713,
      "삿": 4714,
      "상": 4715,
      "새": 4716,
      "색": 4717,
      "서": 4718,
      "성": 4719,
      "센": 4720,
      "소": 4721,
      "쇼": 4722,
      "수": 4723,
      "순": 4724,
      "술": 4725,
      "숫": 4726,
      "스": 4727,
      "시": 4728,
      "식": 4729,
      "신": 4730,
      "실": 4731,
      "쌤": 4732,
      "아": 4733,
      "안": 4734,
      "알": 4735,
      "암": 4736,
      "앙": 4737,
      "애": 4738,
      "앤": 4739,
      "야": 4740,
      "양": 4741,
      "어": 4742,
      "에": 4743,
      "엔": 4744,
      "연": 4745,
      "영": 4746,
      "예": 4747,
      "오": 4748,
      "온": 4749,
      "왜": 4750,
      "용": 4751,
      "운": 4752,
      "울": 4753,
      "원": 4754,
      "위": 4755,
      "유": 4756,
      "은": 4757,
      "을": 4758,
      "음": 4759,
      "의": 4760,
      "이": 4761,
      "인": 4762,
      "일": 4763,
      "자": 4764,
      "장": 4765,
      "재": 4766,
      "적": 4767,
      "전": 4768,
      "점": 4769,
      "정": 4770,
      "제": 4771,
      "조": 4772,
      "종": 4773,
      "좋": 4774,
      "주": 4775,
      "줄": 4776,
      "중": 4777,
      "지": 4778,
      "진": 4779,
      "집": 4780,
      "짓": 4781,
      "징": 4782,
      "차": 4783,
      "천": 4784,
      "청": 4785,
      "체": 4786,
      "쳐": 4787,
      "초": 4788,
      "춘": 4789,
      "충": 4790,
      "치": 4791,
      "커": 4792,
      "코": 4793,
      "킨": 4794,
      "타": 4795,
      "태": 4796,
      "터": 4797,
      "퇴": 4798,
      "투": 4799,
      "트": 4800,
      "특": 4801,
      "파": 4802,
      "판": 4803,
      "퍼": 4804,
      "평": 4805,
      "표": 4806,
      "풍": 4807,
      "피": 4808,
      "하": 4809,
      "학": 4810,
      "한": 4811,
      "합": 4812,
      "해": 4813,
      "행": 4814,
      "향": 4815,
      "허": 4816,
      "헬": 4817,
      "호": 4818,
      "혹": 4819,
      "홀": 4820,
      "화": 4821,
      "회": 4822,
      "후": 4823,
      "희": 4824,
      "️": 4825,
      "︠": 4826,
      "︡": 4827,
      "﻿": 4828,
      "�": 4829,
      "𐀁": 4830,
      "𐀈": 4831,
      "𐀫": 4832,
      "𐎠": 4833,
      "𐎢": 4834,
      "𐎭": 4835,
      "𐎰": 4836,
      "𐎹": 4837,
      "𐎺": 4838,
      "𐎼": 4839,
      "𐏁": 4840,
      "𐭃": 4841,
      "𐭉": 4842,
      "𐭓": 4843,
      "𐭕": 4844,
      "𒀯": 4845,
      "𒀳": 4846,
      "🖕": 4847,
      "##c": 4848,
      "##M": 4849,
      "##e": 4850,
      "##r": 4851,
      "##k": 4852,
      "##a": 4853,
      "##n": 4854,
      "##h": 4855,
      "##l": 4856,
      "##v": 4857,
      "##o": 4858,
      "##g": 4859,
      "##d": 4860,
      "##5": 4861,
      "##3": 4862,
      "##4": 4863,
      "##R": 4864,
      "##T": 4865,
      "##C": 4866,
      "##G": 4867,
      "##B": 4868,
      "##u": 4869,
      "##w": 4870,
      "##i": 4871,
      "##t": 4872,
      "##m": 4873,
      "##s": 4874,
      "##y": 4875,
      "##p": 4876,
      "##Y": 4877,
      "##L": 4878,
      "##q": 4879,
      "##b": 4880,
      "##2": 4881,
      "##F": 4882,
      "##転": 4883,
      "##を": 4884,
      "##継": 4885,
      "##ぐ": 4886,
      "##者": 4887,
      "##S": 4888,
      "##H": 4889,
      "##O": 4890,
      "##事": 4891,
      "##屋": 4892,
      "##ち": 4893,
      "##ゅ": 4894,
      "##л": 4895,
      "##и": 4896,
      "##к": 4897,
      "##а": 4898,
      "##ā": 4899,
      "##ś": 4900,
      "##z": 4901,
      "##x": 4902,
      "##ü": 4903,
      "##独": 4904,
      "##関": 4905,
      "##係": 4906,
      "##V": 4907,
      "##I": 4908,
      "##U": 4909,
      "##D": 4910,
      "##イ": 4911,
      "##9": 4912,
      "##E": 4913,
      "##N": 4914,
      "##ö": 4915,
      "##f": 4916,
      "##ž": 4917,
      "##á": 4918,
      "##川": 4919,
      "##8": 4920,
      "##ǔ": 4921,
      "##ī": 4922,
      "##W": 4923,
      "##ل": 4924,
      "##م": 4925,
      "##ر": 4926,
      "##ا": 4927,
      "##ة": 4928,
      "##j": 4929,
      "##ッ": 4930,
      "##ラ": 4931,
      "##ー": 4932,
      "##ø": 4933,
      "##å": 4934,
      "##č": 4935,
      "##0": 4936,
      "##ʃ": 4937,
      "##ː": 4938,
      "##ə": 4939,
      "##1": 4940,
      "##6": 4941,
      "##A": 4942,
      "##ä": 4943,
      "##グ": 4944,
      "##ロ": 4945,
      "##P": 4946,
      "##ć": 4947,
      "##о": 4948,
      "##р": 4949,
      "##ж": 4950,
      "##ō": 4951,
      "##é": 4952,
      "##ó": 4953,
      "##ě": 4954,
      "##ð": 4955,
      "##è": 4956,
      "##ナ": 4957,
      "##ミ": 4958,
      "##カ": 4959,
      "##ツ": 4960,
      "##画": 4961,
      "##集": 4962,
      "##バ": 4963,
      "##ノ": 4964,
      "##Z": 4965,
      "##ب": 4966,
      "##ń": 4967,
      "##ṇ": 4968,
      "##ū": 4969,
      "##í": 4970,
      "##換": 4971,
      "##ã": 4972,
      "##î": 4973,
      "##у": 4974,
      "##ш": 4975,
      "##ј": 4976,
      "##ћ": 4977,
      "##ा": 4978,
      "##ण": 4979,
      "##ë": 4980,
      "##ン": 4981,
      "##ネ": 4982,
      "##ʻ": 4983,
      "##7": 4984,
      "##K": 4985,
      "##ザ": 4986,
      "##ベ": 4987,
      "##と": 4988,
      "##響": 4989,
      "##き": 4990,
      "##あ": 4991,
      "##う": 4992,
      "##ɾ": 4993,
      "##ɣ": 4994,
      "##ɪ": 4995,
      "##ɒ": 4996,
      "##ł": 4997,
      "##ь": 4998,
      "##е": 4999,
      "##α": 5000,
      "##σ": 5001,
      "##ι": 5002,
      "##λ": 5003,
      "##ί": 5004,
      "##κ": 5005,
      "##ο": 5006,
      "##ς": 5007,
      "##н": 5008,
      "##я": 5009,
      "##з": 5010,
      "##ド": 5011,
      "##ト": 5012,
      "##チ": 5013,
      "##ル": 5014,
      "##レ": 5015,
      "##ï": 5016,
      "##ク": 5017,
      "##ブ": 5018,
      "##一": 5019,
      "##学": 5020,
      "##期": 5021,
      "##補": 5022,
      "##習": 5023,
      "##ă": 5024,
      "##ı": 5025,
      "##J": 5026,
      "##ý": 5027,
      "##ç": 5028,
      "##ę": 5029,
      "##籍": 5030,
      "##家": 5031,
      "##庭": 5032,
      "##傭": 5033,
      "##工": 5034,
      "##ʁ": 5035,
      "##ɑ": 5036,
      "##æ": 5037,
      "##ि": 5038,
      "##म": 5039,
      "##र": 5040,
      "##ḥ": 5041,
      "##ع": 5042,
      "##ي": 5043,
      "##ङ": 5044,
      "##剑": 5045,
      "##子": 5046,
      "##ő": 5047,
      "##X": 5048,
      "##し": 5049,
      "##ん": 5050,
      "##駆": 5051,
      "##け": 5052,
      "##抜": 5053,
      "##ろ": 5054,
      "##ķ": 5055,
      "##þ": 5056,
      "##ì": 5057,
      "##ρ": 5058,
      "##τ": 5059,
      "##η": 5060,
      "##丑": 5061,
      "##ν": 5062,
      "##ε": 5063,
      "##μ": 5064,
      "##ē": 5065,
      "##ṭ": 5066,
      "##原": 5067,
      "##ạ": 5068,
      "##ˈ": 5069,
      "##ɐ": 5070,
      "##ɜ": 5071,
      "##ɛ": 5072,
      "##ɖ": 5073,
      "##भ": 5074,
      "##ु": 5075,
      "##ș": 5076,
      "##ß": 5077,
      "##ê": 5078,
      "##上": 5079,
      "##雲": 5080,
      "##宵": 5081,
      "##ピ": 5082,
      "##ジ": 5083,
      "##ョ": 5084,
      "##シ": 5085,
      "##園": 5086,
      "##放": 5087,
      "##送": 5088,
      "##部": 5089,
      "##à": 5090,
      "##י": 5091,
      "##א": 5092,
      "##タ": 5093,
      "##ゲ": 5094,
      "##石": 5095,
      "##š": 5096,
      "##模": 5097,
      "##ɡ": 5098,
      "##ω": 5099,
      "##ό": 5100,
      "##â": 5101,
      "##ิ": 5102,
      "##เ": 5103,
      "##ว": 5104,
      "##ศ": 5105,
      "##น": 5106,
      "##φ": 5107,
      "##δ": 5108,
      "##ὸ": 5109,
      "##田": 5110,
      "##兩": 5111,
      "##主": 5112,
      "##े": 5113,
      "##ल": 5114,
      "##य": 5115,
      "##女": 5116,
      "##の": 5117,
      "##檻": 5118,
      "##ş": 5119,
      "##ˌ": 5120,
      "##ా": 5121,
      "##ం": 5122,
      "##డ": 5123,
      "##ు": 5124,
      "##ర": 5125,
      "##గ": 5126,
      "##Ξ": 5127,
      "##Δ": 5128,
      "##π": 5129,
      "##ύ": 5130,
      "##ř": 5131,
      "##ュ": 5132,
      "##ハ": 5133,
      "##フ": 5134,
      "##熊": 5135,
      "##猫": 5136,
      "##在": 5137,
      "##能": 5138,
      "##ं": 5139,
      "##त": 5140,
      "##ी": 5141,
      "##ț": 5142,
      "##ヤ": 5143,
      "##エ": 5144,
      "##ウ": 5145,
      "##Q": 5146,
      "##क": 5147,
      "##ृ": 5148,
      "##ك": 5149,
      "##ن": 5150,
      "##平": 5151,
      "##ή": 5152,
      "##व": 5153,
      "##ज": 5154,
      "##स": 5155,
      "##編": 5156,
      "##в": 5157,
      "##ṳ": 5158,
      "##β": 5159,
      "##ά": 5160,
      "##軽": 5161,
      "##氏": 5162,
      "##ô": 5163,
      "##ṝ": 5164,
      "##浦": 5165,
      "##ğ": 5166,
      "##க": 5167,
      "##ñ": 5168,
      "##榔": 5169,
      "##嶼": 5170,
      "##魂": 5171,
      "##公": 5172,
      "##式": 5173,
      "##キ": 5174,
      "##ャ": 5175,
      "##ǧ": 5176,
      "##র": 5177,
      "##ল": 5178,
      "##া": 5179,
      "##ই": 5180,
      "##ন": 5181,
      "##ú": 5182,
      "##ũ": 5183,
      "##ス": 5184,
      "##マ": 5185,
      "##ェ": 5186,
      "##ゥ": 5187,
      "##가": 5188,
      "##지": 5189,
      "##쇼": 5190,
      "##է": 5191,
      "##ո": 5192,
      "##ր": 5193,
      "##գ": 5194,
      "##ギ": 5195,
      "##逆": 5196,
      "##襲": 5197,
      "##ɸ": 5198,
      "##ɯ": 5199,
      "##б": 5200,
      "##д": 5201,
      "##ы": 5202,
      "##θ": 5203,
      "##ʊ": 5204,
      "##ᵻ": 5205,
      "##प": 5206,
      "##न": 5207,
      "##ष": 5208,
      "##圏": 5209,
      "##球": 5210,
      "##ダ": 5211,
      "##ɤ": 5212,
      "##ौ": 5213,
      "##ँ": 5214,
      "##έ": 5215,
      "##動": 5216,
      "##写": 5217,
      "##真": 5218,
      "##腐": 5219,
      "##渣": 5220,
      "##程": 5221,
      "##ὐ": 5222,
      "##т": 5223,
      "##ч": 5224,
      "##с": 5225,
      "##й": 5226,
      "##宙": 5227,
      "##ニ": 5228,
      "##ア": 5229,
      "##日": 5230,
      "##弘": 5231,
      "##法": 5232,
      "##大": 5233,
      "##師": 5234,
      "##ŭ": 5235,
      "##美": 5236,
      "##安": 5237,
      "##颊": 5238,
      "##河": 5239,
      "##γ": 5240,
      "##所": 5241,
      "##乩": 5242,
      "##廟": 5243,
      "##ត": 5244,
      "##ន": 5245,
      "##គ": 5246,
      "##ិ": 5247,
      "##រ": 5248,
      "##ី": 5249,
      "##ò": 5250,
      "##ħ": 5251,
      "##ļ": 5252,
      "##г": 5253,
      "##п": 5254,
      "##円": 5255,
      "##寺": 5256,
      "##担": 5257,
      "##圻": 5258,
      "##ǒ": 5259,
      "##و": 5260,
      "##ą": 5261,
      "##ɦ": 5262,
      "##ৰ": 5263,
      "##ণ": 5264,
      "##易": 5265,
      "##ņ": 5266,
      "##ḍ": 5267,
      "##ʂ": 5268,
      "##ʒ": 5269,
      "##テ": 5270,
      "##鏡": 5271,
      "##照": 5272,
      "##物": 5273,
      "##賦": 5274,
      "##า": 5275,
      "##ม": 5276,
      "##ฤ": 5277,
      "##ต": 5278,
      "##ย": 5279,
      "##ู": 5280,
      "##府": 5281,
      "##ˑ": 5282,
      "##ァ": 5283,
      "##州": 5284,
      "##て": 5285,
      "##僕": 5286,
      "##に": 5287,
      "##で": 5288,
      "##る": 5289,
      "##コ": 5290,
      "##υ": 5291,
      "##ῶ": 5292,
      "##ワ": 5293,
      "##プ": 5294,
      "##リ": 5295,
      "##セ": 5296,
      "##代": 5297,
      "##治": 5298,
      "##ʾ": 5299,
      "##ṛ": 5300,
      "##霞": 5301,
      "##罸": 5302,
      "##ṯ": 5303,
      "##ィ": 5304,
      "##ė": 5305,
      "##ё": 5306,
      "##ַ": 5307,
      "##ס": 5308,
      "##ִ": 5309,
      "##ּ": 5310,
      "##ר": 5311,
      "##生": 5312,
      "##的": 5313,
      "##奉": 5314,
      "##獻": 5315,
      "##œ": 5316,
      "##ώ": 5317,
      "##ả": 5318,
      "##ġ": 5319,
      "##ɔ": 5320,
      "##ʀ": 5321,
      "##翠": 5322,
      "##英": 5323,
      "##ご": 5324,
      "##ǐ": 5325,
      "##ξ": 5326,
      "##ᡝ": 5327,
      "##ᠰ": 5328,
      "##ᡳ": 5329,
      "##城": 5330,
      "##次": 5331,
      "##х": 5332,
      "##м": 5333,
      "##ו": 5334,
      "##ה": 5335,
      "##發": 5336,
      "##û": 5337,
      "##オ": 5338,
      "##サ": 5339,
      "##は": 5340,
      "##色": 5341,
      "##ї": 5342,
      "##А": 5343,
      "##Ш": 5344,
      "##У": 5345,
      "##ù": 5346,
      "##ส": 5347,
      "##ร": 5348,
      "##พ": 5349,
      "##ช": 5350,
      "##ญ": 5351,
      "##ห": 5352,
      "##ป": 5353,
      "##ท": 5354,
      "##ⵎ": 5355,
      "##ⵓ": 5356,
      "##ⵔ": 5357,
      "##ⴰ": 5358,
      "##ⴽ": 5359,
      "##ⵛ": 5360,
      "##野": 5361,
      "##台": 5362,
      "##風": 5363,
      "##庚": 5364,
      "##紀": 5365,
      "##念": 5366,
      "##醫": 5367,
      "##院": 5368,
      "##下": 5369,
      "##羅": 5370,
      "##天": 5371,
      "##征": 5372,
      "##ů": 5373,
      "##メ": 5374,
      "##パ": 5375,
      "##ズ": 5376,
      "##체": 5377,
      "##불": 5378,
      "##명": 5379,
      "##Ω": 5380,
      "##们": 5381,
      "##自": 5382,
      "##己": 5383,
      "##看": 5384,
      "##着": 5385,
      "##办": 5386,
      "##王": 5387,
      "##星": 5388,
      "##Ο": 5389,
      "##Υ": 5390,
      "##Α": 5391,
      "##Ι": 5392,
      "##秀": 5393,
      "##叶": 5394,
      "##נ": 5395,
      "##ת": 5396,
      "##僑": 5397,
      "##中": 5398,
      "##學": 5399,
      "##屬": 5400,
      "##國": 5401,
      "##ῖ": 5402,
      "##瀬": 5403,
      "##さ": 5404,
      "##Μ": 5405,
      "##宫": 5406,
      "##空": 5407,
      "##水": 5408,
      "##晶": 5409,
      "##س": 5410,
      "##χ": 5411,
      "##本": 5412,
      "##な": 5413,
      "##く": 5414,
      "##ば": 5415,
      "##ʿ": 5416,
      "##督": 5417,
      "##二": 5418,
      "##脉": 5419,
      "##精": 5420,
      "##標": 5421,
      "##净": 5422,
      "##ე": 5423,
      "##მ": 5424,
      "##ო": 5425,
      "##ნ": 5426,
      "##ი": 5427,
      "##ṣ": 5428,
      "##倉": 5429,
      "##村": 5430,
      "##מ": 5431,
      "##ף": 5432,
      "##ʌ": 5433,
      "##ै": 5434,
      "##ָ": 5435,
      "##ד": 5436,
      "##ி": 5437,
      "##ர": 5438,
      "##ு": 5439,
      "##ந": 5440,
      "##ங": 5441,
      "##潤": 5442,
      "##ệ": 5443,
      "##ो": 5444,
      "##ῦ": 5445,
      "##ừ": 5446,
      "##ള": 5447,
      "##取": 5448,
      "##り": 5449,
      "##噛": 5450,
      "##د": 5451,
      "##ی": 5452,
      "##み": 5453,
      "##た": 5454,
      "##小": 5455,
      "##径": 5456,
      "##ீ": 5457,
      "##ல": 5458,
      "##ா": 5459,
      "##太": 5460,
      "##洋": 5461,
      "##海": 5462,
      "##戦": 5463,
      "##ណ": 5464,
      "##ឫ": 5465,
      "##ទ": 5466,
      "##支": 5467,
      "##隊": 5468,
      "##牌": 5469,
      "##营": 5470,
      "##些": 5471,
      "##年": 5472,
      "##ʋ": 5473,
      "##彼": 5474,
      "##雷": 5475,
      "##ʔ": 5476,
      "##ἴ": 5477,
      "##忍": 5478,
      "##剛": 5479,
      "##吉": 5480,
      "##元": 5481,
      "##寿": 5482,
      "##殿": 5483,
      "##ţ": 5484,
      "##粟": 5485,
      "##內": 5486,
      "##史": 5487,
      "##だ": 5488,
      "##ま": 5489,
      "##へ": 5490,
      "##부": 5491,
      "##대": 5492,
      "##司": 5493,
      "##十": 5494,
      "##盟": 5495,
      "##約": 5496,
      "##ꦸ": 5497,
      "##ꦲ": 5498,
      "##ꦂ": 5499,
      "##ꦠ": 5500,
      "##か": 5501,
      "##歌": 5502,
      "##ǎ": 5503,
      "##流": 5504,
      "##線": 5505,
      "##ហ": 5506,
      "##ុ": 5507,
      "##ू": 5508,
      "##አ": 5509,
      "##ሕ": 5510,
      "##ዛ": 5511,
      "##ብ": 5512,
      "##ガ": 5513,
      "##ケ": 5514,
      "##ư": 5515,
      "##ớ": 5516,
      "##घ": 5517,
      "##Β": 5518,
      "##Χ": 5519,
      "##기": 5520,
      "##판": 5521,
      "##다": 5522,
      "##づ": 5523,
      "##鉄": 5524,
      "##む": 5525,
      "##こ": 5526,
      "##側": 5527,
      "##Я": 5528,
      "##号": 5529,
      "##勃": 5530,
      "##正": 5531,
      "##ŋ": 5532,
      "##面": 5533,
      "##打": 5534,
      "##ц": 5535,
      "##興": 5536,
      "##報": 5537,
      "##ǂ": 5538,
      "##ա": 5539,
      "##ս": 5540,
      "##յ": 5541,
      "##ն": 5542,
      "##梭": 5543,
      "##ế": 5544,
      "##Š": 5545,
      "##פ": 5546,
      "##ầ": 5547,
      "##藤": 5548,
      "##钊": 5549,
      "##식": 5550,
      "##회": 5551,
      "##사": 5552,
      "##ɕ": 5553,
      "##ذ": 5554,
      "##ه": 5555,
      "##ह": 5556,
      "##派": 5557,
      "##丁": 5558,
      "##解": 5559,
      "##牛": 5560,
      "##ṃ": 5561,
      "##方": 5562,
      "##使": 5563,
      "##ź": 5564,
      "##ῆ": 5565,
      "##ठ": 5566,
      "##ब": 5567,
      "##號": 5568,
      "##作": 5569,
      "##戰": 5570,
      "##ض": 5571,
      "##õ": 5572,
      "##長": 5573,
      "##節": 5574,
      "##度": 5575,
      "##尼": 5576,
      "##西": 5577,
      "##亞": 5578,
      "##華": 5579,
      "##人": 5580,
      "##和": 5581,
      "##천": 5582,
      "##ุ": 5583,
      "##ธ": 5584,
      "##块": 5585,
      "##比": 5586,
      "##萨": 5587,
      "##課": 5588,
      "##後": 5589,
      "##ム": 5590,
      "##ե": 5591,
      "##մ": 5592,
      "##ի": 5593,
      "##վ": 5594,
      "##ไ": 5595,
      "##ล": 5596,
      "##ص": 5597,
      "##沢": 5598,
      "##未": 5599,
      "##夜": 5600,
      "##坊": 5601,
      "##េ": 5602,
      "##ច": 5603,
      "##ព": 5604,
      "##步": 5605,
      "##賢": 5606,
      "##դ": 5607,
      "##կ": 5608,
      "##ש": 5609,
      "##ट": 5610,
      "##ボ": 5611,
      "##島": 5612,
      "##沖": 5613,
      "##降": 5614,
      "##場": 5615,
      "##ѝ": 5616,
      "##デ": 5617,
      "##ẩ": 5618,
      "##弥": 5619,
      "##ṅ": 5620,
      "##環": 5621,
      "##羽": 5622,
      "##宮": 5623,
      "##坂": 5624,
      "##首": 5625,
      "##縊": 5626,
      "##ش": 5627,
      "##農": 5628,
      "##ユ": 5629,
      "##沙": 5630,
      "##刻": 5631,
      "##れ": 5632,
      "##食": 5633,
      "##べ": 5634,
      "##ら": 5635,
      "##ح": 5636,
      "##ٰ": 5637,
      "##ق": 5638,
      "##ľ": 5639,
      "##路": 5640,
      "##ั": 5641,
      "##ค": 5642,
      "##ี": 5643,
      "##拟": 5644,
      "##乌": 5645,
      "##贼": 5646,
      "##Ö": 5647,
      "##ะ": 5648,
      "##ด": 5649,
      "##อ": 5650,
      "##ง": 5651,
      "##ʕ": 5652,
      "##蠕": 5653,
      "##ǝ": 5654,
      "##棋": 5655,
      "##ב": 5656,
      "##ǫ": 5657,
      "##守": 5658,
      "##ڠ": 5659,
      "##ὶ": 5660,
      "##ɮ": 5661,
      "##ํ": 5662,
      "##モ": 5663,
      "##国": 5664,
      "##青": 5665,
      "##铜": 5666,
      "##器": 5667,
      "##研": 5668,
      "##究": 5669,
      "##廷": 5670,
      "##ŏ": 5671,
      "##い": 5672,
      "##備": 5673,
      "##体": 5674,
      "##操": 5675,
      "##ὲ": 5676,
      "##智": 5677,
      "##ŗ": 5678,
      "##ɨ": 5679,
      "##遼": 5680,
      "##ʼ": 5681,
      "##ط": 5682,
      "##آ": 5683,
      "##ت": 5684,
      "##ż": 5685,
      "##旦": 5686,
      "##伝": 5687,
      "##説": 5688,
      "##ؤ": 5689,
      "##ء": 5690,
      "##男": 5691,
      "##内": 5692,
      "##裏": 5693,
      "##武": 5694,
      "##銳": 5695,
      "##熙": 5696,
      "##ю": 5697,
      "##愚": 5698,
      "##南": 5699,
      "##щ": 5700,
      "##廣": 5701,
      "##橋": 5702,
      "##雅": 5703,
      "##則": 5704,
      "##ֶ": 5705,
      "##輔": 5706,
      "##ለ": 5707,
      "##手": 5708,
      "##ビ": 5709,
      "##宣": 5710,
      "##ὕ": 5711,
      "##ف": 5712,
      "##可": 5713,
      "##道": 5714,
      "##非": 5715,
      "##常": 5716,
      "##ע": 5717,
      "##ק": 5718,
      "##藏": 5719,
      "##季": 5720,
      "##語": 5721,
      "##ỹ": 5722,
      "##ہ": 5723,
      "##ど": 5724,
      "##ぶ": 5725,
      "##っ": 5726,
      "##ث": 5727,
      "##也": 5728,
      "##ζ": 5729,
      "##ে": 5730,
      "##ゃ": 5731,
      "##町": 5732,
      "##Ĕ": 5733,
      "##ئ": 5734,
      "##険": 5735,
      "##敢": 5736,
      "##横": 5737,
      "##刀": 5738,
      "##立": 5739,
      "##马": 5740,
      "##儀": 5741,
      "##象": 5742,
      "##要": 5743,
      "##ォ": 5744,
      "##ِ": 5745,
      "##ّ": 5746,
      "##ペ": 5747,
      "##і": 5748,
      "##화": 5749,
      "##재": 5750,
      "##보": 5751,
      "##호": 5752,
      "##법": 5753,
      "##ៈ": 5754,
      "##ъ": 5755,
      "##記": 5756,
      "##ň": 5757,
      "##選": 5758,
      "##ḻ": 5759,
      "##Ꭶ": 5760,
      "##Ꭸ": 5761,
      "##Ᏹ": 5762,
      "##њ": 5763,
      "##ก": 5764,
      "##ု": 5765,
      "##လ": 5766,
      "##ာ": 5767,
      "##း": 5768,
      "##ူ": 5769,
      "##မ": 5770,
      "##ျ": 5771,
      "##ိ": 5772,
      "##彬": 5773,
      "##ز": 5774,
      "##َ": 5775,
      "##ٍ": 5776,
      "##ị": 5777,
      "##孟": 5778,
      "##堅": 5779,
      "##永": 5780,
      "##光": 5781,
      "##魔": 5782,
      "##会": 5783,
      "##社": 5784,
      "##強": 5785,
      "##判": 5786,
      "##副": 5787,
      "##Θ": 5788,
      "##ἰ": 5789,
      "##仲": 5790,
      "##耕": 5791,
      "##造": 5792,
      "##艦": 5793,
      "##池": 5794,
      "##や": 5795,
      "##蛙": 5796,
      "##飛": 5797,
      "##び": 5798,
      "##音": 5799,
      "##复": 5800,
      "##助": 5801,
      "##ט": 5802,
      "##康": 5803,
      "##鳳": 5804,
      "##型": 5805,
      "##军": 5806,
      "##纵": 5807,
      "##驰": 5808,
      "##奔": 5809,
      "##童": 5810,
      "##那": 5811,
      "##ᠴ": 5812,
      "##ᡵ": 5813,
      "##薇": 5814,
      "##館": 5815,
      "##教": 5816,
      "##徒": 5817,
      "##耳": 5818,
      "##救": 5819,
      "##之": 5820,
      "##温": 5821,
      "##贝": 5822,
      "##计": 5823,
      "##划": 5824,
      "##כ": 5825,
      "##彌": 5826,
      "##遠": 5827,
      "##伟": 5828,
      "##联": 5829,
      "##帝": 5830,
      "##ɹ": 5831,
      "##ゼ": 5832,
      "##景": 5833,
      "##ོ": 5834,
      "##ถ": 5835,
      "##憶": 5836,
      "##հ": 5837,
      "##ց": 5838,
      "##ւ": 5839,
      "##ộ": 5840,
      "##郎": 5841,
      "##镜": 5842,
      "##鉴": 5843,
      "##新": 5844,
      "##加": 5845,
      "##坡": 5846,
      "##义": 5847,
      "##ゴ": 5848,
      "##ɲ": 5849,
      "##木": 5850,
      "##Τ": 5851,
      "##ắ": 5852,
      "##ȟ": 5853,
      "##ф": 5854,
      "##印": 5855,
      "##術": 5856,
      "##溪": 5857,
      "##筆": 5858,
      "##談": 5859,
      "##も": 5860,
      "##友": 5861,
      "##松": 5862,
      "##չ": 5863,
      "##文": 5864,
      "##ি": 5865,
      "##ব": 5866,
      "##岐": 5867,
      "##द": 5868,
      "##终": 5869,
      "##幻": 5870,
      "##想": 5871,
      "##見": 5872,
      "##親": 5873,
      "##љ": 5874,
      "##韶": 5875,
      "##점": 5876,
      "##狗": 5877,
      "##Ú": 5878,
      "##山": 5879,
      "##荘": 5880,
      "##件": 5881,
      "##房": 5882,
      "##卿": 5883,
      "##艶": 5884,
      "##詞": 5885,
      "##絵": 5886,
      "##巻": 5887,
      "##邊": 5888,
      "##薔": 5889,
      "##思": 5890,
      "##議": 5891,
      "##Σ": 5892,
      "##五": 5893,
      "##漁": 5894,
      "##祭": 5895,
      "##江": 5896,
      "##湖": 5897,
      "##眼": 5898,
      "##竜": 5899,
      "##政": 5900,
      "##宗": 5901,
      "##ณ": 5902,
      "##喬": 5903,
      "##芳": 5904,
      "##局": 5905,
      "##剣": 5906,
      "##行": 5907,
      "##宝": 5908,
      "##夤": 5909,
      "##ἳ": 5910,
      "##镗": 5911,
      "##ன": 5912,
      "##万": 5913,
      "##ל": 5914,
      "##ዘ": 5915,
      "##ሐ": 5916,
      "##በ": 5917,
      "##ὰ": 5918,
      "##짓": 5919,
      "##말": 5920,
      "##ゆ": 5921,
      "##身": 5922,
      "##龍": 5923,
      "##拳": 5924,
      "##破": 5925,
      "##ぬ": 5926,
      "##限": 5927,
      "##す": 5928,
      "##亚": 5929,
      "##坤": 5930,
      "##ج": 5931,
      "##ǹ": 5932,
      "##ǚ": 5933,
      "##章": 5934,
      "##旗": 5935,
      "##旋": 5936,
      "##丸": 5937,
      "##臨": 5938,
      "##麾": 5939,
      "##ዕ": 5940,
      "##ቆ": 5941,
      "##添": 5942,
      "##财": 5943,
      "##향": 5944,
      "##전": 5945,
      "##ぺ": 5946,
      "##同": 5947,
      "##志": 5948,
      "##ヒ": 5949,
      "##ậ": 5950,
      "##ܕ": 5951,
      "##ܡ": 5952,
      "##ܘ": 5953,
      "##ܪ": 5954,
      "##ܬ": 5955,
      "##ܐ": 5956,
      "##炎": 5957,
      "##ῷ": 5958,
      "##寬": 5959,
      "##殻": 5960,
      "##機": 5961,
      "##ְ": 5962,
      "##悪": 5963,
      "##산": 5964,
      "##투": 5965,
      "##ぱ": 5966,
      "##改": 5967,
      "##書": 5968,
      "##令": 5969,
      "##ὡ": 5970,
      "##樹": 5971,
      "##ɬ": 5972,
      "##雉": 5973,
      "##戸": 5974,
      "##ى": 5975,
      "##श": 5976,
      "##ख": 5977,
      "##च": 5978,
      "##ʹ": 5979,
      "##Ρ": 5980,
      "##頭": 5981,
      "##閃": 5982,
      "##蓀": 5983,
      "##広": 5984,
      "##地": 5985,
      "##鎮": 5986,
      "##街": 5987,
      "##鼓": 5988,
      "##ग": 5989,
      "##沌": 5990,
      "##死": 5991,
      "##禎": 5992,
      "##暦": 5993,
      "##隸": 5994,
      "##皇": 5995,
      "##莞": 5996,
      "##縣": 5997,
      "##菜": 5998,
      "##拉": 5999,
      "##ḷ": 6000,
      "##望": 6001,
      "##葉": 6002,
      "##ȝ": 6003,
      "##ђ": 6004,
      "##磨": 6005,
      "##ܔ": 6006,
      "##ይ": 6007,
      "##ኲ": 6008,
      "##ን": 6009,
      "##ח": 6010,
      "##ֹ": 6011,
      "##豫": 6012,
      "##堀": 6013,
      "##迦": 6014,
      "##ヴ": 6015,
      "##爆": 6016,
      "##発": 6017,
      "##恋": 6018,
      "##味": 6019,
      "##羊": 6020,
      "##ပ": 6021,
      "##ြ": 6022,
      "##င": 6023,
      "##曜": 6024,
      "##Ν": 6025,
      "##様": 6026,
      "##ょ": 6027,
      "##茶": 6028,
      "##采": 6029,
      "##菉": 6030,
      "##聖": 6031,
      "##歓": 6032,
      "##喜": 6033,
      "##叢": 6034,
      "##毛": 6035,
      "##妮": 6036,
      "##ố": 6037,
      "##米": 6038,
      "##白": 6039,
      "##礁": 6040,
      "##岛": 6041,
      "##权": 6042,
      "##争": 6043,
      "##端": 6044,
      "##及": 6045,
      "##其": 6046,
      "##对": 6047,
      "##关": 6048,
      "##系": 6049,
      "##东": 6050,
      "##发": 6051,
      "##展": 6052,
      "##影": 6053,
      "##响": 6054,
      "##喚": 6055,
      "##獣": 6056,
      "##神": 6057,
      "##卦": 6058,
      "##螺": 6059,
      "##ُ": 6060,
      "##律": 6061,
      "##师": 6062,
      "##儿": 6063,
      "##ử": 6064,
      "##خ": 6065,
      "##鱀": 6066,
      "##豚": 6067,
      "##族": 6068,
      "##馆": 6069,
      "##辭": 6070,
      "##末": 6071,
      "##伯": 6072,
      "##蘭": 6073,
      "##豬": 6074,
      "##急": 6075,
      "##計": 6076,
      "##ờ": 6077,
      "##غ": 6078,
      "##ք": 6079,
      "##庇": 6080,
      "##衝": 6081,
      "##鬥": 6082,
      "##ṉ": 6083,
      "##沫": 6084,
      "##引": 6085,
      "##悦": 6086,
      "##明": 6087,
      "##ʏ": 6088,
      "##Л": 6089,
      "##Г": 6090,
      "##О": 6091,
      "##雇": 6092,
      "##外": 6093,
      "##久": 6094,
      "##毘": 6095,
      "##売": 6096,
      "##遁": 6097,
      "##đ": 6098,
      "##ध": 6099,
      "##八": 6100,
      "##抄": 6101,
      "##ỳ": 6102,
      "##咲": 6103,
      "##架": 6104,
      "##ể": 6105,
      "##ǭ": 6106,
      "##徽": 6107,
      "##六": 6108,
      "##籃": 6109,
      "##堤": 6110,
      "##楽": 6111,
      "##Ī": 6112,
      "##枝": 6113,
      "##圣": 6114,
      "##げ": 6115,
      "##丘": 6116,
      "##ձ": 6117,
      "##թ": 6118,
      "##汉": 6119,
      "##أ": 6120,
      "##馬": 6121,
      "##宏": 6122,
      "##通": 6123,
      "##պ": 6124,
      "##տ": 6125,
      "##М": 6126,
      "##С": 6127,
      "##வ": 6128,
      "##ம": 6129,
      "##策": 6130,
      "##財": 6131,
      "##何": 6132,
      "##敏": 6133,
      "##全": 6134,
      "##仕": 6135,
      "##ם": 6136,
      "##欽": 6137,
      "##ា": 6138,
      "##ស": 6139,
      "##ខ": 6140,
      "##ǜ": 6141,
      "##口": 6142,
      "##ʐ": 6143,
      "##界": 6144,
      "##塔": 6145,
      "##士": 6146,
      "##震": 6147,
      "##災": 6148,
      "##市": 6149,
      "##北": 6150,
      "##去": 6151,
      "##э": 6152,
      "##ូ": 6153,
      "##ភ": 6154,
      "##ឹ": 6155,
      "##ក": 6156,
      "##ដ": 6157,
      "##郛": 6158,
      "##切": 6159,
      "##走": 6160,
      "##위": 6161,
      "##단": 6162,
      "##원": 6163,
      "##의": 6164,
      "##お": 6165,
      "##ழ": 6166,
      "##舎": 6167,
      "##都": 6168,
      "##ْ": 6169,
      "##恒": 6170,
      "##夫": 6171,
      "##谷": 6172,
      "##兰": 6173,
      "##涵": 6174,
      "##尾": 6175,
      "##ぎ": 6176,
      "##翔": 6177,
      "##愛": 6178,
      "##蠻": 6179,
      "##津": 6180,
      "##香": 6181,
      "##ひ": 6182,
      "##詩": 6183,
      "##ų": 6184,
      "##إ": 6185,
      "##症": 6186,
      "##候": 6187,
      "##群": 6188,
      "##渡": 6189,
      "##櫓": 6190,
      "##附": 6191,
      "##棟": 6192,
      "##แ": 6193,
      "##ռ": 6194,
      "##უ": 6195,
      "##ბ": 6196,
      "##ა": 6197,
      "##ზ": 6198,
      "##名": 6199,
      "##勝": 6200,
      "##ɓ": 6201,
      "##ű": 6202,
      "##君": 6203,
      "##牙": 6204,
      "##ず": 6205,
      "##め": 6206,
      "##É": 6207,
      "##ץ": 6208,
      "##ɢ": 6209,
      "##應": 6210,
      "##條": 6211,
      "##ḗ": 6212,
      "##吹": 6213,
      "##直": 6214,
      "##ự": 6215,
      "##奥": 6216,
      "##義": 6217,
      "##ὺ": 6218,
      "##秋": 6219,
      "##ΐ": 6220,
      "##省": 6221,
      "##確": 6222,
      "##Т": 6223,
      "##լ": 6224,
      "##化": 6225,
      "##彩": 6226,
      "##陶": 6227,
      "##忘": 6228,
      "##録": 6229,
      "##巫": 6230,
      "##總": 6231,
      "##商": 6232,
      "##會": 6233,
      "##姉": 6234,
      "##そ": 6235,
      "##ܝ": 6236,
      "##ܢ": 6237,
      "##泉": 6238,
      "##ყ": 6239,
      "##宴": 6240,
      "##供": 6241,
      "##格": 6242,
      "##虎": 6243,
      "##ʈ": 6244,
      "##技": 6245,
      "##蓮": 6246,
      "##弓": 6247,
      "##矢": 6248,
      "##宿": 6249,
      "##բ": 6250,
      "##熱": 6251,
      "##淵": 6252,
      "##良": 6253,
      "##巴": 6254,
      "##旺": 6255,
      "##溫": 6256,
      "##해": 6257,
      "##林": 6258,
      "##合": 6259,
      "##斎": 6260,
      "##ỗ": 6261,
      "##花": 6262,
      "##三": 6263,
      "##清": 6264,
      "##צ": 6265,
      "##網": 6266,
      "##洁": 6267,
      "##凤": 6268,
      "##澄": 6269,
      "##ক": 6270,
      "##ᾶ": 6271,
      "##Η": 6272,
      "##つ": 6273,
      "##ˀ": 6274,
      "##动": 6275,
      "##百": 6276,
      "##弐": 6277,
      "##拾": 6278,
      "##壱": 6279,
      "##ざ": 6280,
      "##ֲ": 6281,
      "##番": 6282,
      "##Е": 6283,
      "##Р": 6284,
      "##Ь": 6285,
      "##ɳ": 6286,
      "##鎖": 6287,
      "##斬": 6288,
      "##月": 6289,
      "##魯": 6290,
      "##堆": 6291,
      "##ɵ": 6292,
      "##ḩ": 6293,
      "##ぽ": 6294,
      "##じ": 6295,
      "##怖": 6296,
      "##ヨ": 6297,
      "##വ": 6298,
      "##ി": 6299,
      "##ശ": 6300,
      "##词": 6301,
      "##ხ": 6302,
      "##井": 6303,
      "##芝": 6304,
      "##居": 6305,
      "##盒": 6306,
      "##材": 6307,
      "##勅": 6308,
      "##閣": 6309,
      "##ɫ": 6310,
      "##翁": 6311,
      "##ֵ": 6312,
      "##少": 6313,
      "##門": 6314,
      "##弟": 6315,
      "##吟": 6316,
      "##廿": 6317,
      "##仙": 6318,
      "##陣": 6319,
      "##ぼ": 6320,
      "##来": 6321,
      "##春": 6322,
      "##傅": 6323,
      "##博": 6324,
      "##沉": 6325,
      "##ポ": 6326,
      "##牧": 6327,
      "##銀": 6328,
      "##形": 6329,
      "##ן": 6330,
      "##Á": 6331,
      "##ѹ": 6332,
      "##わ": 6333,
      "##時": 6334,
      "##국": 6335,
      "##廻": 6336,
      "##陽": 6337,
      "##客": 6338,
      "##話": 6339,
      "##騷": 6340,
      "##瑞": 6341,
      "##ៃ": 6342,
      "##碼": 6343,
      "##泗": 6344,
      "##臺": 6345,
      "##灣": 6346,
      "##校": 6347,
      "##ợ": 6348,
      "##奇": 6349,
      "##陛": 6350,
      "##ල": 6351,
      "##노": 6352,
      "##삼": 6353,
      "##성": 6354,
      "##자": 6355,
      "##қ": 6356,
      "##投": 6357,
      "##ֱ": 6358,
      "##赤": 6359,
      "##壁": 6360,
      "##官": 6361,
      "##桀": 6362,
      "##ĩ": 6363,
      "##騒": 6364,
      "##怒": 6365,
      "##ీ": 6366,
      "##న": 6367,
      "##塞": 6368,
      "##舞": 6369,
      "##心": 6370,
      "##บ": 6371,
      "##ษ": 6372,
      "##Γ": 6373,
      "##为": 6374,
      "##民": 6375,
      "##咙": 6376,
      "##胡": 6377,
      "##彦": 6378,
      "##欠": 6379,
      "##片": 6380,
      "##極": 6381,
      "##圖": 6382,
      "##笠": 6383,
      "##茸": 6384,
      "##ម": 6385,
      "##ល": 6386,
      "##ួ": 6387,
      "##ង": 6388,
      "##再": 6389,
      "##ड": 6390,
      "##나": 6391,
      "##波": 6392,
      "##泰": 6393,
      "##港": 6394,
      "##航": 6395,
      "##問": 6396,
      "##県": 6397,
      "##浜": 6398,
      "##ụ": 6399,
      "##Κ": 6400,
      "##昌": 6401,
      "##礼": 6402,
      "##ὔ": 6403,
      "##尺": 6404,
      "##ៅ": 6405,
      "##ៀ": 6406,
      "##ប": 6407,
      "##品": 6408,
      "##根": 6409,
      "##性": 6410,
      "##布": 6411,
      "##ʎ": 6412,
      "##将": 6413,
      "##超": 6414,
      "##え": 6415,
      "##世": 6416,
      "##が": 6417,
      "##現": 6418,
      "##留": 6419,
      "##佳": 6420,
      "##簿": 6421,
      "##ὼ": 6422,
      "##呂": 6423,
      "##高": 6424,
      "##华": 6425,
      "##悟": 6426,
      "##ʙ": 6427,
      "##ŵ": 6428,
      "##希": 6429,
      "##ў": 6430,
      "##ソ": 6431,
      "##初": 6432,
      "##曆": 6433,
      "##玄": 6434,
      "##ׂ": 6435,
      "##ः": 6436,
      "##突": 6437,
      "##Φ": 6438,
      "##Э": 6439,
      "##П": 6440,
      "##Б": 6441,
      "##І": 6442,
      "##К": 6443,
      "##撃": 6444,
      "##翼": 6445,
      "##杖": 6446,
      "##泊": 6447,
      "##渦": 6448,
      "##砂": 6449,
      "##զ": 6450,
      "##ồ": 6451,
      "##ே": 6452,
      "##丞": 6453,
      "##相": 6454,
      "##ಂ": 6455,
      "##ಡ": 6456,
      "##ೋ": 6457,
      "##ಬ": 6458,
      "##ಾ": 6459,
      "##ข": 6460,
      "##沛": 6461,
      "##宁": 6462,
      "##𐎠": 6463,
      "##𐎼": 6464,
      "##𐎹": 6465,
      "##𐎺": 6466,
      "##𐎢": 6467,
      "##𐏁": 6468,
      "##種": 6469,
      "##爵": 6470,
      "##ղ": 6471,
      "##ು": 6472,
      "##ಶ": 6473,
      "##ಿ": 6474,
      "##ಲ": 6475,
      "##母": 6476,
      "##無": 6477,
      "##罪": 6478,
      "##座": 6479,
      "##堂": 6480,
      "##炸": 6481,
      "##桧": 6482,
      "##楯": 6483,
      "##乃": 6484,
      "##颖": 6485,
      "##先": 6486,
      "##Ф": 6487,
      "##ះ": 6488,
      "##ោ": 6489,
      "##주": 6490,
      "##達": 6491,
      "##梏": 6492,
      "##È": 6493,
      "##霖": 6494,
      "##桓": 6495,
      "##冬": 6496,
      "##ȷ": 6497,
      "##ẓ": 6498,
      "##车": 6499,
      "##決": 6500,
      "##顯": 6501,
      "##ḱ": 6502,
      "##Ε": 6503,
      "##字": 6504,
      "##幽": 6505,
      "##霊": 6506,
      "##蝕": 6507,
      "##仮": 6508,
      "##秘": 6509,
      "##ⵍ": 6510,
      "##ⴻ": 6511,
      "##ⵉ": 6512,
      "##ⵢ": 6513,
      "##ⵏ": 6514,
      "##匹": 6515,
      "##克": 6516,
      "##帆": 6517,
      "##船": 6518,
      "##漫": 6519,
      "##畫": 6520,
      "##树": 6521,
      "##葵": 6522,
      "##ᛇ": 6523,
      "##ᛋ": 6524,
      "##ᛚ": 6525,
      "##ᚻ": 6526,
      "##ᛠ": 6527,
      "##ᚱ": 6528,
      "##ᛞ": 6529,
      "##今": 6530,
      "##著": 6531,
      "##聞": 6532,
      "##ἱ": 6533,
      "##罠": 6534,
      "##战": 6535,
      "##斗": 6536,
      "##里": 6537,
      "##ಠ": 6538,
      "##分": 6539,
      "##ằ": 6540,
      "##质": 6541,
      "##培": 6542,
      "##养": 6543,
      "##纪": 6544,
      "##实": 6545,
      "##ɺ": 6546,
      "##យ": 6547,
      "##ತ": 6548,
      "##ヘ": 6549,
      "##洞": 6550,
      "##列": 6551,
      "##区": 6552,
      "##综": 6553,
      "##厦": 6554,
      "##โ": 6555,
      "##ภ": 6556,
      "##豆": 6557,
      "##沽": 6558,
      "##瓦": 6559,
      "##ψ": 6560,
      "##ď": 6561,
      "##劇": 6562,
      "##फ": 6563,
      "##然": 6564,
      "##数": 6565,
      "##凱": 6566,
      "##ɰ": 6567,
      "##紙": 6568,
      "##巨": 6569,
      "##像": 6570,
      "##軍": 6571,
      "##団": 6572,
      "##磅": 6573,
      "##肉": 6574,
      "##坪": 6575,
      "##鋪": 6576,
      "##庫": 6577,
      "##始": 6578,
      "##よ": 6579,
      "##ⴳ": 6580,
      "##ⵜ": 6581,
      "##ơ": 6582,
      "##爭": 6583,
      "##略": 6584,
      "##ծ": 6585,
      "##力": 6586,
      "##帥": 6587,
      "##鳴": 6588,
      "##終": 6589,
      "##樂": 6590,
      "##辯": 6591,
      "##평": 6592,
      "##恭": 6593,
      "##介": 6594,
      "##病": 6595,
      "##夢": 6596,
      "##枯": 6597,
      "##จ": 6598,
      "##ಮ": 6599,
      "##ǵ": 6600,
      "##將": 6601,
      "##気": 6602,
      "##ื": 6603,
      "##漏": 6604,
      "##稔": 6605,
      "##ɟ": 6606,
      "##ھ": 6607,
      "##ظ": 6608,
      "##ÿ": 6609,
      "##恩": 6610,
      "##失": 6611,
      "##好": 6612,
      "##須": 6613,
      "##有": 6614,
      "##声": 6615,
      "##闍": 6616,
      "##梨": 6617,
      "##跖": 6618,
      "##草": 6619,
      "##伊": 6620,
      "##奈": 6621,
      "##信": 6622,
      "##賞": 6623,
      "##受": 6624,
      "##ḫ": 6625,
      "##敬": 6626,
      "##紹": 6627,
      "##維": 6628,
      "##梅": 6629,
      "##珠": 6630,
      "##ំ": 6631,
      "##ᾳ": 6632,
      "##ֳ": 6633,
      "##凰": 6634,
      "##ெ": 6635,
      "##ட": 6636,
      "##ॊ": 6637,
      "##獅": 6638,
      "##竺": 6639,
      "##鼠": 6640,
      "##注": 6641,
      "##辰": 6642,
      "##რ": 6643,
      "##ვ": 6644,
      "##ლ": 6645,
      "##ှ": 6646,
      "##Ǝ": 6647,
      "##த": 6648,
      "##雄": 6649,
      "##ọ": 6650,
      "##臣": 6651,
      "##议": 6652,
      "##남": 6653,
      "##Ψ": 6654,
      "##泾": 6655,
      "##佛": 6656,
      "##齊": 6657,
      "##个": 6658,
      "##髀": 6659,
      "##算": 6660,
      "##經": 6661,
      "##鳥": 6662,
      "##京": 6663,
      "##等": 6664,
      "##範": 6665,
      "##素": 6666,
      "##گ": 6667,
      "##丈": 6668,
      "##残": 6669,
      "##酷": 6670,
      "##咆": 6671,
      "##哮": 6672,
      "##聲": 6673,
      "##ỏ": 6674,
      "##ც": 6675,
      "##를": 6676,
      "##祿": 6677,
      "##勳": 6678,
      "##爱": 6679,
      "##我": 6680,
      "##无": 6681,
      "##共": 6682,
      "##狂": 6683,
      "##言": 6684,
      "##ṁ": 6685,
      "##虫": 6686,
      "##御": 6687,
      "##幸": 6688,
      "##甫": 6689,
      "##冉": 6690,
      "##ὑ": 6691,
      "##祈": 6692,
      "##გ": 6693,
      "##ʝ": 6694,
      "##ใ": 6695,
      "##ὖ": 6696,
      "##ѧ": 6697,
      "##ੇ": 6698,
      "##ਵ": 6699,
      "##妹": 6700,
      "##授": 6701,
      "##ম": 6702,
      "##ী": 6703,
      "##剧": 6704,
      "##ሰ": 6705,
      "##闇": 6706,
      "##话": 6707,
      "##诉": 6708,
      "##讼": 6709,
      "##살": 6710,
      "##렌": 6711,
      "##ۍ": 6712,
      "##ׁ": 6713,
      "##상": 6714,
      "##렬": 6715,
      "##变": 6716,
      "##成": 6717,
      "##了": 6718,
      "##វ": 6719,
      "##歲": 6720,
      "##인": 6721,
      "##住": 6722,
      "##落": 6723,
      "##窓": 6724,
      "##Ō": 6725,
      "##關": 6726,
      "##蒿": 6727,
      "##妙": 6728,
      "##ថ": 6729,
      "##ً": 6730,
      "##灵": 6731,
      "##ĉ": 6732,
      "##漂": 6733,
      "##錄": 6734,
      "##ὴ": 6735,
      "##리": 6736,
      "##苗": 6737,
      "##շ": 6738,
      "##昂": 6739,
      "##潜": 6740,
      "##ổ": 6741,
      "##ऽ": 6742,
      "##孔": 6743,
      "##雀": 6744,
      "##ང": 6745,
      "##є": 6746,
      "##娜": 6747,
      "##載": 6748,
      "##金": 6749,
      "##検": 6750,
      "##査": 6751,
      "##拖": 6752,
      "##ྱ": 6753,
      "##ི": 6754,
      "##淑": 6755,
      "##ึ": 6756,
      "##璽": 6757,
      "##東": 6758,
      "##ک": 6759,
      "##ྤ": 6760,
      "##銓": 6761,
      "##라": 6762,
      "##这": 6763,
      "##就": 6764,
      "##跟": 6765,
      "##ฑ": 6766,
      "##貓": 6767,
      "##İ": 6768,
      "##票": 6769,
      "##促": 6770,
      "##進": 6771,
      "##孫": 6772,
      "##述": 6773,
      "##ს": 6774,
      "##ტ": 6775,
      "##ჲ": 6776,
      "##ত": 6777,
      "##老": 6778,
      "##儡": 6779,
      "##怪": 6780,
      "##最": 6781,
      "##多": 6782,
      "##膺": 6783,
      "##ぴ": 6784,
      "##散": 6785,
      "##迷": 6786,
      "##站": 6787,
      "##थ": 6788,
      "##彪": 6789,
      "##探": 6790,
      "##偵": 6791,
      "##狐": 6792,
      "##権": 6793,
      "##德": 6794,
      "##懷": 6795,
      "##牢": 6796,
      "##嘘": 6797,
      "##兵": 6798,
      "##四": 6799,
      "##뱅": 6800,
      "##용": 6801,
      "##統": 6802,
      "##条": 6803,
      "##召": 6804,
      "##鴻": 6805,
      "##ג": 6806,
      "##歴": 6807,
      "##ჳ": 6808,
      "##厩": 6809,
      "##篋": 6810,
      "##吾": 6811,
      "##掲": 6812,
      "##示": 6813,
      "##板": 6814,
      "##融": 6815,
      "##血": 6816,
      "##双": 6817,
      "##ť": 6818,
      "##綯": 6819,
      "##愁": 6820,
      "##曲": 6821,
      "##崎": 6822,
      "##२": 6823,
      "##ջ": 6824,
      "##兜": 6825,
      "##肚": 6826,
      "##越": 6827,
      "##甲": 6828,
      "##ማ": 6829,
      "##ር": 6830,
      "##ረ": 6831,
      "##衣": 6832,
      "##命": 6833,
      "##ை": 6834,
      "##ʑ": 6835,
      "##ủ": 6836,
      "##ሥ": 6837,
      "##ሓ": 6838,
      "##數": 6839,
      "##閏": 6840,
      "##登": 6841,
      "##朗": 6842,
      "##복": 6843,
      "##役": 6844,
      "##线": 6845,
      "##缽": 6846,
      "##底": 6847,
      "##版": 6848,
      "##ĭ": 6849,
      "##Ü": 6850,
      "##⁄": 6851,
      "##习": 6852,
      "##密": 6853,
      "##警": 6854,
      "##察": 6855,
      "##ཁ": 6856,
      "##འ": 6857,
      "##ז": 6858,
      "##早": 6859,
      "##如": 6860,
      "##意": 6861,
      "##ヌ": 6862,
      "##装": 6863,
      "##巡": 6864,
      "##స": 6865,
      "##狼": 6866,
      "##煙": 6867,
      "##ḳ": 6868,
      "##半": 6869,
      "##ʉ": 6870,
      "##雞": 6871,
      "##ദ": 6872,
      "##县": 6873,
      "##建": 6874,
      "##聯": 6875,
      "##Ꮃ": 6876,
      "##Ꮀ": 6877,
      "##Ꮉ": 6878,
      "##々": 6879,
      "##育": 6880,
      "##孩": 6881,
      "##需": 6882,
      "##慧": 6883,
      "##ⵃ": 6884,
      "##ⵡ": 6885,
      "##ⵕ": 6886,
      "##ƀ": 6887,
      "##ᒡ": 6888,
      "##ᓘ": 6889,
      "##ᑲ": 6890,
      "##범": 6891,
      "##福": 6892,
      "##尉": 6893,
      "##収": 6894,
      "##이": 6895,
      "##돌": 6896,
      "##桑": 6897,
      "##衡": 6898,
      "##善": 6899,
      "##朏": 6900,
      "##玉": 6901,
      "##敵": 6902,
      "##濃": 6903,
      "##ấ": 6904,
      "##坚": 6905,
      "##踏": 6906,
      "##Ѣ": 6907,
      "##Н": 6908,
      "##И": 6909,
      "##խ": 6910,
      "##夏": 6911,
      "##ோ": 6912,
      "##ய": 6913,
      "##竹": 6914,
      "##Č": 6915,
      "##য": 6916,
      "##譚": 6917,
      "##重": 6918,
      "##封": 6919,
      "##భ": 6920,
      "##మ": 6921,
      "##鱼": 6922,
      "##ễ": 6923,
      "##堡": 6924,
      "##輪": 6925,
      "##허": 6926,
      "##그": 6927,
      "##悲": 6928,
      "##更": 6929,
      "##近": 6930,
      "##滋": 6931,
      "##Ž": 6932,
      "##情": 6933,
      "##岸": 6934,
      "##謎": 6935,
      "##宇": 6936,
      "##由": 6937,
      "##姬": 6938,
      "##笑": 6939,
      "##ძ": 6940,
      "##თ": 6941,
      "##ˁ": 6942,
      "##芸": 6943,
      "##鷹": 6944,
      "##鹿": 6945,
      "##姑": 6946,
      "##ூ": 6947,
      "##衢": 6948,
      "##థ": 6949,
      "##盤": 6950,
      "##服": 6951,
      "##銃": 6952,
      "##퍼": 6953,
      "##런": 6954,
      "##스": 6955,
      "##键": 6956,
      "##鐘": 6957,
      "##骨": 6958,
      "##脈": 6959,
      "##利": 6960,
      "##特": 6961,
      "##與": 6962,
      "##豹": 6963,
      "##吳": 6964,
      "##ề": 6965,
      "##祖": 6966,
      "##朝": 6967,
      "##ぃ": 6968,
      "##ふ": 6969,
      "##棵": 6970,
      "##吞": 6971,
      "##壓": 6972,
      "##電": 6973,
      "##裁": 6974,
      "##持": 6975,
      "##ฆ": 6976,
      "##鳩": 6977,
      "##幡": 6978,
      "##柩": 6979,
      "##희": 6980,
      "##ە": 6981,
      "##帮": 6982,
      "##Λ": 6983,
      "##縄": 6984,
      "##빤": 6985,
      "##邑": 6986,
      "##質": 6987,
      "##組": 6988,
      "##以": 6989,
      "##傘": 6990,
      "##開": 6991,
      "##색": 6992,
      "##시": 6993,
      "##唄": 6994,
      "##雪": 6995,
      "##给": 6996,
      "##进": 6997,
      "##늬": 6998,
      "##오": 6999,
      "##징": 7000,
      "##어": 7001,
      "##科": 7002,
      "##医": 7003,
      "##ƿ": 7004,
      "##ֿ": 7005,
      "##聚": 7006,
      "##忠": 7007,
      "##ಸ": 7008,
      "##賓": 7009,
      "##摩": 7010,
      "##ے": 7011,
      "##请": 7012,
      "##书": 7013,
      "##七": 7014,
      "##找": 7015,
      "##瓜": 7016,
      "##油": 7017,
      "##憑": 7018,
      "##ሀ": 7019,
      "##ገ": 7020,
      "##ผ": 7021,
      "##ฟ": 7022,
      "##龙": 7023,
      "##李": 7024,
      "##혹": 7025,
      "##风": 7026,
      "##仪": 7027,
      "##禰": 7028,
      "##ฮ": 7029,
      "##麗": 7030,
      "##読": 7031,
      "##完": 7032,
      "##Х": 7033,
      "##ා": 7034,
      "##ජ": 7035,
      "##ධ": 7036,
      "##න": 7037,
      "##ි": 7038,
      "##ය": 7039,
      "##姫": 7040,
      "##پ": 7041,
      "##ⴷ": 7042,
      "##ደ": 7043,
      "##連": 7044,
      "##驤": 7045,
      "##ɥ": 7046,
      "##租": 7047,
      "##婆": 7048,
      "##迄": 7049,
      "##戎": 7050,
      "##稚": 7051,
      "##護": 7052,
      "##婷": 7053,
      "##글": 7054,
      "##빙": 7055,
      "##앙": 7056,
      "##연": 7057,
      "##구": 7058,
      "##소": 7059,
      "##ܠ": 7060,
      "##ܗ": 7061,
      "##符": 7062,
      "##皮": 7063,
      "##ག": 7064,
      "##ན": 7065,
      "##抱": 7066,
      "##祺": 7067,
      "##侨": 7068,
      "##秒": 7069,
      "##问": 7070,
      "##答": 7071,
      "##ḹ": 7072,
      "##脚": 7073,
      "##හ": 7074,
      "##ර": 7075,
      "##若": 7076,
      "##芬": 7077,
      "##皿": 7078,
      "##敷": 7079,
      "##郷": 7080,
      "##叉": 7081,
      "##誕": 7082,
      "##釈": 7083,
      "##漢": 7084,
      "##乱": 7085,
      "##ซ": 7086,
      "##駒": 7087,
      "##የ": 7088,
      "##ከ": 7089,
      "##ነ": 7090,
      "##鶴": 7091,
      "##槤": 7092,
      "##飄": 7093,
      "##ը": 7094,
      "##緒": 7095,
      "##经": 7096,
      "##总": 7097,
      "##ქ": 7098,
      "##欣": 7099,
      "##段": 7100,
      "##ஸ": 7101,
      "##定": 7102,
      "##理": 7103,
      "##ぷ": 7104,
      "##衛": 7105,
      "##處": 7106,
      "##乘": 7107,
      "##ŷ": 7108,
      "##ģ": 7109,
      "##고": 7110,
      "##려": 7111,
      "##間": 7112,
      "##ট": 7113,
      "##阳": 7114,
      "##郑": 7115,
      "##角": 7116,
      "##黙": 7117,
      "##օ": 7118,
      "##Æ": 7119,
      "##长": 7120,
      "##黒": 7121,
      "##陸": 7122,
      "##実": 7123,
      "##襟": 7124,
      "##१": 7125,
      "##雜": 7126,
      "##吧": 7127,
      "##边": 7128,
      "##糊": 7129,
      "##択": 7130,
      "##対": 7131,
      "##応": 7132,
      "##행": 7133,
      "##庙": 7134,
      "##惟": 7135,
      "##燃": 7136,
      "##酥": 7137,
      "##敦": 7138,
      "##ᵿ": 7139,
      "##开": 7140,
      "##浚": 7141,
      "##嫁": 7142,
      "##頃": 7143,
      "##ܼ": 7144,
      "##ೇ": 7145,
      "##貞": 7146,
      "##第": 7147,
      "##ǣ": 7148,
      "##ṓ": 7149,
      "##復": 7150,
      "##活": 7151,
      "##砲": 7152,
      "##Ş": 7153,
      "##休": 7154,
      "##右": 7155,
      "##ɻ": 7156,
      "##간": 7157,
      "##火": 7158,
      "##杜": 7159,
      "##እ": 7160,
      "##ስ": 7161,
      "##為": 7162,
      "##你": 7163,
      "##個": 7164,
      "##健": 7165,
      "##壯": 7166,
      "##腎": 7167,
      "##境": 7168,
      "##荷": 7169,
      "##領": 7170,
      "##域": 7171,
      "##碗": 7172,
      "##粥": 7173,
      "##愍": 7174,
      "##户": 7175,
      "##彭": 7176,
      "##풍": 7177,
      "##幕": 7178,
      "##予": 7179,
      "##感": 7180,
      "##ẻ": 7181,
      "##鑒": 7182,
      "##怀": 7183,
      "##洲": 7184,
      "##箱": 7185,
      "##樓": 7186,
      "##挑": 7187,
      "##出": 7188,
      "##극": 7189,
      "##장": 7190,
      "##ྲ": 7191,
      "##ུ": 7192,
      "##ལ": 7193,
      "##制": 7194,
      "##調": 7195,
      "##ẖ": 7196,
      "##փ": 7197,
      "##冒": 7198,
      "##邪": 7199,
      "##不": 7200,
      "##錡": 7201,
      "##ੁ": 7202,
      "##ਸ": 7203,
      "##ਾ": 7204,
      "##ਂ": 7205,
      "##ਝ": 7206,
      "##振": 7207,
      "##鐸": 7208,
      "##鼎": 7209,
      "##古": 7210,
      "##棺": 7211,
      "##宅": 7212,
      "##歳": 7213,
      "##変": 7214,
      "##ാ": 7215,
      "##ഹ": 7216,
      "##厥": 7217,
      "##Յ": 7218,
      "##Դ": 7219,
      "##献": 7220,
      "##摸": 7221,
      "##ම": 7222,
      "##協": 7223,
      "##籌": 7224,
      "##視": 7225,
      "##庁": 7226,
      "##驁": 7227,
      "##刷": 7228,
      "##表": 7229,
      "##玲": 7230,
      "##管": 7231,
      "##杏": 7232,
      "##ီ": 7233,
      "##ရ": 7234,
      "##撒": 7235,
      "##ञ": 7236,
      "##倫": 7237,
      "##銖": 7238,
      "##ဲ": 7239,
      "##ᾰ": 7240,
      "##ῐ": 7241,
      "##鈍": 7242,
      "##篤": 7243,
      "##Π": 7244,
      "##嘉": 7245,
      "##楼": 7246,
      "##ဟ": 7247,
      "##န": 7248,
      "##軒": 7249,
      "##俱": 7250,
      "##綾": 7251,
      "##棚": 7252,
      "##စ": 7253,
      "##酒": 7254,
      "##崇": 7255,
      "##紅": 7256,
      "##牡": 7257,
      "##丹": 7258,
      "##Ë": 7259,
      "##娘": 7260,
      "##ಕ": 7261,
      "##Ô": 7262,
      "##暁": 7263,
      "##歡": 7264,
      "##難": 7265,
      "##ṵ": 7266,
      "##ḭ": 7267,
      "##아": 7268,
      "##დ": 7269,
      "##ᠠ": 7270,
      "##ᠨ": 7271,
      "##ᠵ": 7272,
      "##ᡠ": 7273,
      "##苣": 7274,
      "##萬": 7275,
      "##俊": 7276,
      "##盘": 7277,
      "##痴": 7278,
      "##乙": 7279,
      "##呪": 7280,
      "##ḏ": 7281,
      "##務": 7282,
      "##兔": 7283,
      "##ో": 7284,
      "##బ": 7285,
      "##ા": 7286,
      "##ર": 7287,
      "##ો": 7288,
      "##ખ": 7289,
      "##ὗ": 7290,
      "##荼": 7291,
      "##鬪": 7292,
      "##承": 7293,
      "##禾": 7294,
      "##与": 7295,
      "##ེ": 7296,
      "##莊": 7297,
      "##綺": 7298,
      "##晋": 7299,
      "##滑": 7300,
      "##奪": 7301,
      "##樉": 7302,
      "##ச": 7303,
      "##暖": 7304,
      "##諭": 7305,
      "##历": 7306,
      "##前": 7307,
      "##ө": 7308,
      "##典": 7309,
      "##断": 7310,
      "##烟": 7311,
      "##气": 7312,
      "##동": 7313,
      "##차": 7314,
      "##ರ": 7315,
      "##ぇ": 7316,
      "##左": 7317,
      "##峰": 7318,
      "##扇": 7319,
      "##別": 7320,
      "##𐭉": 7321,
      "##𐭓": 7322,
      "##𐭃": 7323,
      "##𐭕": 7324,
      "##ῇ": 7325,
      "##奐": 7326,
      "##鞠": 7327,
      "##ṟ": 7328,
      "##ළ": 7329,
      "##嵐": 7330,
      "##卖": 7331,
      "##ែ": 7332,
      "##弹": 7333,
      "##Ś": 7334,
      "##Ḥ": 7335,
      "##শ": 7336,
      "##云": 7337,
      "##齐": 7338,
      "##梓": 7339,
      "##凯": 7340,
      "##锡": 7341,
      "##ॉ": 7342,
      "##菊": 7343,
      "##ẹ": 7344,
      "##劣": 7345,
      "##ẽ": 7346,
      "##佐": 7347,
      "##妇": 7348,
      "##ਲ": 7349,
      "##ਹ": 7350,
      "##亨": 7351,
      "##運": 7352,
      "##只": 7353,
      "##是": 7354,
      "##ヅ": 7355,
      "##ϊ": 7356,
      "##區": 7357,
      "##聘": 7358,
      "##用": 7359,
      "##虛": 7360,
      "##Ē": 7361,
      "##შ": 7362,
      "##苑": 7363,
      "##ɴ": 7364,
      "##സ": 7365,
      "##ở": 7366,
      "##滿": 7367,
      "##顔": 7368,
      "##向": 7369,
      "##𐎰": 7370,
      "##顏": 7371,
      "##襄": 7372,
      "##除": 7373,
      "##飾": 7374,
      "##篇": 7375,
      "##占": 7376,
      "##父": 7377,
      "##豊": 7378,
      "##暮": 7379,
      "##鞋": 7380,
      "##焔": 7381,
      "##燈": 7382,
      "##耆": 7383,
      "##割": 7384,
      "##寔": 7385,
      "##鲤": 7386,
      "##ứ": 7387,
      "##誡": 7388,
      "##亦": 7389,
      "##傳": 7390,
      "##尚": 7391,
      "##殊": 7392,
      "##ᛁ": 7393,
      "##ਿ": 7394,
      "##ੰ": 7395,
      "##ਘ": 7396,
      "##屑": 7397,
      "##ἶ": 7398,
      "##ぜ": 7399,
      "##ホ": 7400,
      "##総": 7401,
      "##具": 7402,
      "##掛": 7403,
      "##Ä": 7404,
      "##渊": 7405,
      "##阁": 7406,
      "##臚": 7407,
      "##इ": 7408,
      "##栗": 7409,
      "##ฬ": 7410,
      "##交": 7411,
      "##帖": 7412,
      "##防": 7413,
      "##론": 7414,
      "##詠": 7415,
      "##蔭": 7416,
      "##穂": 7417,
      "##门": 7418,
      "##勇": 7419,
      "##返": 7420,
      "##椰": 7421,
      "##包": 7422,
      "##咫": 7423,
      "##烏": 7424,
      "##ɽ": 7425,
      "##孝": 7426,
      "##尧": 7427,
      "##广": 7428,
      "##继": 7429,
      "##荒": 7430,
      "##賈": 7431,
      "##富": 7432,
      "##ల": 7433,
      "##涼": 7434,
      "##濞": 7435,
      "##積": 7436,
      "##回": 7437,
      "##贵": 7438,
      "##瘡": 7439,
      "##寶": 7440,
      "##歷": 7441,
      "##哲": 7442,
      "##滨": 7443,
      "##छ": 7444,
      "##내": 7445,
      "##券": 7446,
      "##宜": 7447,
      "##ĕ": 7448,
      "##修": 7449,
      "##締": 7450,
      "##蕃": 7451,
      "##源": 7452,
      "##ई": 7453,
      "##願": 7454,
      "##ἵ": 7455,
      "##叔": 7456,
      "##周": 7457,
      "##隠": 7458,
      "##沂": 7459,
      "##鮮": 7460,
      "##远": 7461,
      "##坑": 7462,
      "##深": 7463,
      "##际": 7464,
      "##爾": 7465,
      "##圓": 7466,
      "##줄": 7467,
      "##室": 7468,
      "##节": 7469,
      "##课": 7470,
      "##ⵣ": 7471,
      "##ⴼ": 7472,
      "##鷺": 7473,
      "##耶": 7474,
      "##瑙": 7475,
      "##勒": 7476,
      "##硕": 7477,
      "##悫": 7478,
      "##靖": 7479,
      "##ฐ": 7480,
      "##杲": 7481,
      "##翻": 7482,
      "##坝": 7483,
      "##铁": 7484,
      "##བ": 7485,
      "##糸": 7486,
      "##両": 7487,
      "##莉": 7488,
      "##栖": 7489,
      "##ဘ": 7490,
      "##က": 7491,
      "##ဝ": 7492,
      "##ယ": 7493,
      "##危": 7494,
      "##墓": 7495,
      "##糖": 7496,
      "##焉": 7497,
      "##ヂ": 7498,
      "##ⵇ": 7499,
      "##澤": 7500,
      "##棍": 7501,
      "##ள": 7502,
      "##伏": 7503,
      "##ǰ": 7504,
      "##蛇": 7505,
      "##ས": 7506,
      "##ѣ": 7507,
      "##柳": 7508,
      "##네": 7509,
      "##后": 7510,
      "##爲": 7511,
      "##椒": 7512,
      "##태": 7513,
      "##권": 7514,
      "##도": 7515,
      "##迅": 7516,
      "##雳": 7517,
      "##裕": 7518,
      "##ো": 7519,
      "##礮": 7520,
      "##騎": 7521,
      "##槻": 7522,
      "##铎": 7523,
      "##罰": 7524,
      "##足": 7525,
      "##塘": 7526,
      "##私": 7527,
      "##塊": 7528,
      "##冶": 7529,
      "##ほ": 7530,
      "##礎": 7531,
      "##知": 7532,
      "##識": 7533,
      "##ធ": 7534,
      "##珂": 7535,
      "##莎": 7536,
      "##臘": 7537,
      "##ֻ": 7538,
      "##ෝ": 7539,
      "##ව": 7540,
      "##Ц": 7541,
      "##壽": 7542,
      "##ჯ": 7543,
      "##械": 7544,
      "##鎧": 7545,
      "##唱": 7546,
      "##鵬": 7547,
      "##告": 7548,
      "##鮫": 7549,
      "##炯": 7550,
      "##綱": 7551,
      "##禺": 7552,
      "##跡": 7553,
      "##ু": 7554,
      "##타": 7555,
      "##일": 7556,
      "##瑪": 7557,
      "##竇": 7558,
      "##規": 7559,
      "##矩": 7560,
      "##攝": 7561,
      "##寄": 7562,
      "##せ": 7563,
      "##箭": 7564,
      "##报": 7565,
      "##保": 7566,
      "##碩": 7567,
      "##額": 7568,
      "##駙": 7569,
      "##哉": 7570,
      "##ʽ": 7571,
      "##設": 7572,
      "##職": 7573,
      "##延": 7574,
      "##梁": 7575,
      "##誘": 7576,
      "##拐": 7577,
      "##案": 7578,
      "##禄": 7579,
      "##嶺": 7580,
      "##ු": 7581,
      "##ප": 7582,
      "##侠": 7583,
      "##漠": 7584,
      "##郡": 7585,
      "##齋": 7586,
      "##朱": 7587,
      "##酸": 7588,
      "##而": 7589,
      "##尸": 7590,
      "##溢": 7591,
      "##誠": 7592,
      "##ண": 7593,
      "##絶": 7594,
      "##叫": 7595,
      "##棘": 7596,
      "##揺": 7597,
      "##时": 7598,
      "##土": 7599,
      "##ܒ": 7600,
      "##蜃": 7601,
      "##讀": 7602,
      "##付": 7603,
      "##紡": 7604,
      "##侬": 7605,
      "##闘": 7606,
      "##机": 7607,
      "##祥": 7608,
      "##姦": 7609,
      "##庆": 7610,
      "##叡": 7611,
      "##慶": 7612,
      "##ȯ": 7613,
      "##鬼": 7614,
      "##신": 7615,
      "##양": 7616,
      "##광": 7617,
      "##წ": 7618,
      "##ფ": 7619,
      "##靠": 7620,
      "##腿": 7621,
      "##墙": 7622,
      "##梦": 7623,
      "##থ": 7624,
      "##ཙ": 7625,
      "##丝": 7626,
      "##静": 7627,
      "##寂": 7628,
      "##ⵙ": 7629,
      "##息": 7630,
      "##ҷ": 7631,
      "##ӣ": 7632,
      "##杯": 7633,
      "##榮": 7634,
      "##椅": 7635,
      "##賀": 7636,
      "##烦": 7637,
      "##恼": 7638,
      "##ੱ": 7639,
      "##亡": 7640,
      "##依": 7641,
      "##魚": 7642,
      "##楚": 7643,
      "##霸": 7644,
      "##够": 7645,
      "##夕": 7646,
      "##束": 7647,
      "##巖": 7648,
      "##惑": 7649,
      "##黄": 7650,
      "##ܣ": 7651,
      "##葆": 7652,
      "##車": 7653,
      "##ữ": 7654,
      "##埔": 7655,
      "##輝": 7656,
      "##輿": 7657,
      "##殺": 7658,
      "##灰": 7659,
      "##惠": 7660,
      "##鋒": 7661,
      "##椛": 7662,
      "##퇴": 7663,
      "##ኢ": 7664,
      "##ት": 7665,
      "##ዮ": 7666,
      "##ጵ": 7667,
      "##ያ": 7668,
      "##润": 7669,
      "##臂": 7670,
      "##膀": 7671,
      "##Ā": 7672,
      "##鉦": 7673,
      "##碍": 7674,
      "##ਜ": 7675,
      "##ѥ": 7676,
      "##ታ": 7677,
      "##ቲ": 7678,
      "##ኖ": 7679,
      "##届": 7680,
      "##运": 7681,
      "##曾": 7682,
      "##蝉": 7683,
      "##脱": 7684,
      "##壳": 7685,
      "##奧": 7686,
      "##ȳ": 7687,
      "##週": 7688,
      "##駿": 7689,
      "##位": 7690,
      "##铺": 7691,
      "##库": 7692,
      "##诺": 7693,
      "##資": 7694,
      "##料": 7695,
      "##赭": 7696,
      "##屯": 7697,
      "##寧": 7698,
      "##奏": 7699,
      "##琦": 7700,
      "##계": 7701,
      "##ĺ": 7702,
      "##ḑ": 7703,
      "##滅": 7704,
      "##ಗ": 7705,
      "##稷": 7706,
      "##Ѡ": 7707,
      "##Ъ": 7708,
      "##막": 7709,
      "##标": 7710,
      "##細": 7711,
      "##侍": 7712,
      "##堯": 7713,
      "##勢": 7714,
      "##湾": 7715,
      "##ঙ": 7716,
      "##প": 7717,
      "##升": 7718,
      "##移": 7719,
      "##嚣": 7720,
      "##蒭": 7721,
      "##래": 7722,
      "##暴": 7723,
      "##만": 7724,
      "##바": 7725,
      "##봐": 7726,
      "##貫": 7727,
      "##麼": 7728,
      "##納": 7729,
      "##過": 7730,
      "##Ó": 7731,
      "##拍": 7732,
      "##卜": 7733,
      "##匠": 7734,
      "##监": 7735,
      "##扉": 7736,
      "##蕉": 7737,
      "##ṽ": 7738,
      "##蔵": 7739,
      "##ᛟ": 7740,
      "##ᚾ": 7741,
      "##ᚨ": 7742,
      "##颂": 7743,
      "##薙": 7744,
      "##红": 7745,
      "##З": 7746,
      "##ជ": 7747,
      "##ឯ": 7748,
      "##ү": 7749,
      "##Є": 7750,
      "##Ѯ": 7751,
      "##종": 7752,
      "##합": 7753,
      "##운": 7754,
      "##孵": 7755,
      "##猿": 7756,
      "##股": 7757,
      "##指": 7758,
      "##導": 7759,
      "##騰": 7760,
      "##语": 7761,
      "##汇": 7762,
      "##级": 7763,
      "##纲": 7764,
      "##ཡ": 7765,
      "##护": 7766,
      "##汗": 7767,
      "##ẫ": 7768,
      "##併": 7769,
      "##鹽": 7770,
      "##隱": 7771,
      "##厚": 7772,
      "##徳": 7773,
      "##藩": 7774,
      "##図": 7775,
      "##𒀳": 7776,
      "##儒": 7777,
      "##異": 7778,
      "##ך": 7779,
      "##謝": 7780,
      "##贤": 7781,
      "##畑": 7782,
      "##甘": 7783,
      "##岭": 7784,
      "##Ø": 7785,
      "##閒": 7786,
      "##瑠": 7787,
      "##劍": 7788,
      "##翹": 7789,
      "##근": 7790,
      "##ḵ": 7791,
      "##ᚢ": 7792,
      "##ᛏ": 7793,
      "##ᚹ": 7794,
      "##渠": 7795,
      "##ڬ": 7796,
      "##ね": 7797,
      "##怎": 7798,
      "##么": 7799,
      "##过": 7800,
      "##優": 7801,
      "##ɘ": 7802,
      "##무": 7803,
      "##트": 7804,
      "##홀": 7805,
      "##鼻": 7806,
      "##鸟": 7807,
      "##ἥ": 7808,
      "##踊": 7809,
      "##産": 7810,
      "##謀": 7811,
      "##璉": 7812,
      "##蝶": 7813,
      "##抓": 7814,
      "##起": 7815,
      "##涙": 7816,
      "##炬": 7817,
      "##挥": 7818,
      "##焼": 7819,
      "##功": 7820,
      "##巳": 7821,
      "##満": 7822,
      "##狸": 7823,
      "##汤": 7824,
      "##실": 7825,
      "##야": 7826,
      "##憲": 7827,
      "##집": 7828,
      "##朋": 7829,
      "##ٔ": 7830,
      "##株": 7831,
      "##借": 7832,
      "##桜": 7833,
      "##ದ": 7834,
      "##給": 7835,
      "##놔": 7836,
      "##豪": 7837,
      "##觀": 7838,
      "##千": 7839,
      "##尋": 7840,
      "##桃": 7841,
      "##增": 7842,
      "##霆": 7843,
      "##才": 7844,
      "##喇": 7845,
      "##Ċ": 7846,
      "##伴": 7847,
      "##靈": 7848,
      "##岩": 7849,
      "##錬": 7850,
      "##窟": 7851,
      "##Ј": 7852,
      "##妃": 7853,
      "##映": 7854,
      "##煜": 7855,
      "##珙": 7856,
      "##祠": 7857,
      "##盏": 7858,
      "##灯": 7859,
      "##泡": 7860,
      "##瀛": 7861,
      "##減": 7862,
      "##閨": 7863,
      "##貴": 7864,
      "##亀": 7865,
      "##昭": 7866,
      "##茂": 7867,
      "##執": 7868,
      "##填": 7869,
      "##威": 7870,
      "##건": 7871,
      "##創": 7872,
      "##Ă": 7873,
      "##ὣ": 7874,
      "##衙": 7875,
      "##尽": 7876,
      "##踢": 7877,
      "##楠": 7878,
      "##据": 7879,
      "##启": 7880,
      "##黨": 7881,
      "##例": 7882,
      "##爽": 7883,
      "##覚": 7884,
      "##隣": 7885,
      "##壷": 7886,
      "##胞": 7887,
      "##委": 7888,
      "##員": 7889,
      "##鐵": 7890,
      "##چ": 7891,
      "##得": 7892,
      "##唯": 7893,
      "##尊": 7894,
      "##訳": 7895,
      "##瓢": 7896,
      "##箪": 7897,
      "##冠": 7898,
      "##謡": 7899,
      "##芙": 7900,
      "##幣": 7901,
      "##琪": 7902,
      "##秦": 7903,
      "##囃": 7904,
      "##遊": 7905,
      "##塚": 7906,
      "##卫": 7907,
      "##ժ": 7908,
      "##ድ": 7909,
      "##Й": 7910,
      "##禮": 7911,
      "##Ꮝ": 7912,
      "##Ꮿ": 7913,
      "##論": 7914,
      "##柱": 7915,
      "##養": 7916,
      "##킨": 7917,
      "##消": 7918,
      "##ỵ": 7919,
      "##ര": 7920,
      "##ങ": 7921,
      "##悠": 7922,
      "##蒲": 7923,
      "##ේ": 7924,
      "##ශ": 7925,
      "##લ": 7926,
      "##સ": 7927,
      "##宋": 7928,
      "##郁": 7929,
      "##阿": 7930,
      "##烙": 7931,
      "##游": 7932,
      "##Í": 7933,
      "##蕨": 7934,
      "##维": 7935,
      "##參": 7936,
      "##考": 7937,
      "##却": 7938,
      "##霰": 7939,
      "##弾": 7940,
      "##他": 7941,
      "##栄": 7942,
      "##採": 7943,
      "##購": 7944,
      "##題": 7945,
      "##証": 7946,
      "##晴": 7947,
      "##靂": 7948,
      "##ॆ": 7949,
      "##음": 7950,
      "##浪": 7951,
      "##Д": 7952,
      "##植": 7953,
      "##ゑ": 7954,
      "##憎": 7955,
      "##荻": 7956,
      "##申": 7957,
      "##观": 7958,
      "##獄": 7959,
      "##백": 7960,
      "##遇": 7961,
      "##刘": 7962,
      "##產": 7963,
      "##ặ": 7964,
      "##鍵": 7965,
      "##Ы": 7966,
      "##录": 7967,
      "##笛": 7968,
      "##瓊": 7969,
      "##辆": 7970,
      "##虹": 7971,
      "##狩": 7972,
      "##ୁ": 7973,
      "##ର": 7974,
      "##ୀ": 7975,
      "##戯": 7976,
      "##概": 7977,
      "##ಟ": 7978,
      "##目": 7979,
      "##ῳ": 7980,
      "##午": 7981,
      "##九": 7982,
      "##玩": 7983,
      "##厂": 7984,
      "##歩": 7985,
      "##止": 7986,
      "##ـ": 7987,
      "##経": 7988,
      "##侗": 7989,
      "##汝": 7990,
      "##适": 7991,
      "##Ζ": 7992,
      "##币": 7993,
      "##妻": 7994,
      "##弱": 7995,
      "##琮": 7996,
      "##ỉ": 7997,
      "##致": 7998,
      "##문": 7999,
      "##控": 8000,
      "##描": 8001,
      "##徹": 8002,
      "##析": 8003,
      "##陈": 8004,
      "##ᾷ": 8005,
      "##瑣": 8006,
      "##头": 8007,
      "##ྟ": 8008,
      "##斯": 8009,
      "##聃": 8010,
      "##쳐": 8011,
      "##서": 8012,
      "##琴": 8013,
      "##绮": 8014,
      "##姚": 8015,
      "##传": 8016,
      "##邦": 8017,
      "##槐": 8018,
      "##毬": 8019,
      "##肃": 8020,
      "##į": 8021,
      "##脩": 8022,
      "##진": 8023,
      "##壮": 8024,
      "##炼": 8025,
      "##刊": 8026,
      "##栽": 8027,
      "##ভ": 8028,
      "##ূ": 8029,
      "##ճ": 8030,
      "##吸": 8031,
      "##颜": 8032,
      "##遗": 8033,
      "##爺": 8034,
      "##侯": 8035,
      "##巂": 8036,
      "##製": 8037,
      "##蓝": 8038,
      "##頌": 8039,
      "##入": 8040,
      "##ැ": 8041,
      "##ɚ": 8042,
      "##ں": 8043,
      "##喝": 8044,
      "##烧": 8045,
      "##ᛗ": 8046,
      "##ぅ": 8047,
      "##階": 8048,
      "##绍": 8049,
      "##날": 8050,
      "##刃": 8051,
      "##한": 8052,
      "##민": 8053,
      "##亜": 8054,
      "##ై": 8055,
      "##溜": 8056,
      "##憂": 8057,
      "##삿": 8058,
      "##裔": 8059,
      "##너": 8060,
      "##피": 8061,
      "##森": 8062,
      "##差": 8063,
      "##ẵ": 8064,
      "##盼": 8065,
      "##亮": 8066,
      "##氣": 8067,
      "##卒": 8068,
      "##奴": 8069,
      "##騭": 8070,
      "##誦": 8071,
      "##轩": 8072,
      "##乐": 8073,
      "##达": 8074,
      "##岳": 8075,
      "##ֽ": 8076,
      "##寞": 8077,
      "##咖": 8078,
      "##啡": 8079,
      "##因": 8080,
      "##표": 8081,
      "##록": 8082,
      "##狛": 8083,
      "##験": 8084,
      "##청": 8085,
      "##覺": 8086,
      "##業": 8087,
      "##珍": 8088,
      "##药": 8089,
      "##誌": 8090,
      "##負": 8091,
      "##營": 8092,
      "##宸": 8093,
      "##獵": 8094,
      "##斤": 8095,
      "##వ": 8096,
      "##ి": 8097,
      "##细": 8098,
      "##হ": 8099,
      "##醒": 8100,
      "##姿": 8101,
      "##充": 8102,
      "##ゾ": 8103,
      "##屿": 8104,
      "##决": 8105,
      "##ĵ": 8106,
      "##誓": 8107,
      "##유": 8108,
      "##ܲ": 8109,
      "##ܵ": 8110,
      "##翱": 8111,
      "##경": 8112,
      "##관": 8113,
      "##엔": 8114,
      "##념": 8115,
      "##공": 8116,
      "##ῠ": 8117,
      "##微": 8118,
      "##垣": 8119,
      "##读": 8120,
      "##權": 8121,
      "##٧": 8122,
      "##Œ": 8123,
      "##协": 8124,
      "##筹": 8125,
      "##备": 8126,
      "##仇": 8127,
      "##從": 8128,
      "##灾": 8129,
      "##恢": 8130,
      "##援": 8131,
      "##艳": 8132,
      "##물": 8133,
      "##뿐": 8134,
      "##攻": 8135,
      "##肖": 8136,
      "##兆": 8137,
      "##痘": 8138,
      "##鷓": 8139,
      "##鴣": 8140,
      "##ৈ": 8141,
      "##খ": 8142,
      "##札": 8143,
      "##泣": 8144,
      "##蘄": 8145,
      "##恥": 8146,
      "##弦": 8147,
      "##囂": 8148,
      "##屠": 8149,
      "##穌": 8150,
      "##Đ": 8151,
      "##砖": 8152,
      "##祚": 8153,
      "##ப": 8154,
      "##ǽ": 8155,
      "##跆": 8156,
      "##緯": 8157,
      "##雾": 8158,
      "##Ḣ": 8159,
      "##祐": 8160,
      "##倭": 8161,
      "##筍": 8162,
      "##蓑": 8163,
      "##闕": 8164,
      "##犬": 8165,
      "##灼": 8166,
      "##魄": 8167,
      "##ϟ": 8168,
      "##ⲩ": 8169,
      "##ⲥ": 8170,
      "##ⲧ": 8171,
      "##ⲁ": 8172,
      "##ⲱ": 8173,
      "##ⲛ": 8174,
      "##贞": 8175,
      "##遺": 8176,
      "##ῑ": 8177,
      "##В": 8178,
      "##ٌ": 8179,
      "##燕": 8180,
      "##煌": 8181,
      "##籠": 8182,
      "##拏": 8183,
      "##앤": 8184,
      "##파": 8185,
      "##커": 8186,
      "##ና": 8187,
      "##射": 8188,
      "##람": 8189,
      "##났": 8190,
      "##ꜜ": 8191,
      "##卡": 8192,
      "##戈": 8193,
      "##麥": 8194,
      "##序": 8195,
      "##焦": 8196,
      "##寨": 8197,
      "##ヶ": 8198,
      "##観": 8199,
      "##測": 8200,
      "##雁": 8201,
      "##방": 8202,
      "##울": 8203,
      "##미": 8204,
      "##邁": 8205,
      "##零": 8206,
      "##ᡨ": 8207,
      "##ᡥ": 8208,
      "##Ħ": 8209,
      "##ᚷ": 8210,
      "##统": 8211,
      "##ྡ": 8212,
      "##མ": 8213,
      "##没": 8214,
      "##追": 8215,
      "##悼": 8216,
      "##은": 8217,
      "##을": 8218,
      "##讐": 8219,
      "##尔": 8220,
      "##ష": 8221,
      "##ƒ": 8222,
      "##綸": 8223,
      "##Î": 8224,
      "##囁": 8225,
      "##拘": 8226,
      "##泥": 8227,
      "##瑜": 8228,
      "##ċ": 8229,
      "##彙": 8230,
      "##ɭ": 8231,
      "##迈": 8232,
      "##祀": 8233,
      "##句": 8234,
      "##柏": 8235,
      "##旭": 8236,
      "##수": 8237,
      "##桐": 8238,
      "##央": 8239,
      "##革": 8240,
      "##组": 8241,
      "##버": 8242,
      "##Ї": 8243,
      "##瑾": 8244,
      "##即": 8245,
      "##雕": 8246,
      "##韓": 8247,
      "##极": 8248,
      "##图": 8249,
      "##舍": 8250,
      "##鈴": 8251,
      "##雙": 8252,
      "##層": 8253,
      "##崖": 8254,
      "##鰐": 8255,
      "##煩": 8256,
      "##藥": 8257,
      "##禁": 8258,
      "##盆": 8259,
      "##초": 8260,
      "##에": 8261,
      "##ฝ": 8262,
      "##說": 8263,
      "##對": 8264,
      "##ಭ": 8265,
      "##笨": 8266,
      "##箇": 8267,
      "##昏": 8268,
      "##点": 8269,
      "##芒": 8270,
      "##容": 8271,
      "##嶋": 8272,
      "##皙": 8273,
      "##帰": 8274,
      "##త": 8275,
      "##仔": 8276,
      "##芮": 8277,
      "##ѡ": 8278,
      "##丽": 8279,
      "##萍": 8280,
      "##ᚩ": 8281,
      "##ᚦ": 8282,
      "##జ": 8283,
      "##ར": 8284,
      "##盗": 8285,
      "##肩": 8286,
      "##ḕ": 8287,
      "##嬢": 8288,
      "##ฏ": 8289,
      "##ྥ": 8290,
      "##梯": 8291,
      "##谦": 8292,
      "##鉢": 8293,
      "##ฎ": 8294,
      "##鵡": 8295,
      "##Â": 8296,
      "##倪": 8297,
      "##緩": 8298,
      "##ἲ": 8299,
      "##結": 8300,
      "##椿": 8301,
      "##沼": 8302,
      "##湯": 8303,
      "##施": 8304,
      "##순": 8305,
      "##穎": 8306,
      "##恆": 8307,
      "##ద": 8308,
      "##筐": 8309,
      "##斜": 8310,
      "##態": 8311,
      "##杀": 8312,
      "##卸": 8313,
      "##綜": 8314,
      "##橚": 8315,
      "##莘": 8316,
      "##陵": 8317,
      "##到": 8318,
      "##簡": 8319,
      "##桥": 8320,
      "##苺": 8321,
      "##岚": 8322,
      "##狱": 8323,
      "##处": 8324,
      "##髪": 8325,
      "##瑋": 8326,
      "##𐀁": 8327,
      "##𐀫": 8328,
      "##柆": 8329,
      "##鍋": 8330,
      "##紋": 8331,
      "##阪": 8332,
      "##逢": 8333,
      "##瓷": 8334,
      "##루": 8335,
      "##하": 8336,
      "##补": 8337,
      "##翘": 8338,
      "##蕩": 8339,
      "##罗": 8340,
      "##瞬": 8341,
      "##淘": 8342,
      "##汰": 8343,
      "##ং": 8344,
      "##岡": 8345,
      "##孛": 8346,
      "##份": 8347,
      "##ṙ": 8348,
      "##允": 8349,
      "##ཛ": 8350,
      "##দ": 8351,
      "##疾": 8352,
      "##括": 8353,
      "##ⵖ": 8354,
      "##屍": 8355,
      "##果": 8356,
      "##絡": 8357,
      "##菱": 8358,
      "##辿": 8359,
      "##斉": 8360,
      "##Ά": 8361,
      "##虔": 8362,
      "##鸡": 8363,
      "##甜": 8364,
      "##ನ": 8365,
      "##ᠣ": 8366,
      "##ᠯ": 8367,
      "##정": 8368,
      "##沒": 8369,
      "##壌": 8370,
      "##硝": 8371,
      "##雎": 8372,
      "##變": 8373,
      "##婚": 8374,
      "##爪": 8375,
      "##任": 8376,
      "##晒": 8377,
      "##ჱ": 8378,
      "##鋼": 8379,
      "##曦": 8380,
      "##貝": 8381,
      "##劃": 8382,
      "##卓": 8383,
      "##妍": 8384,
      "##荪": 8385,
      "##似": 8386,
      "##賊": 8387,
      "##Å": 8388,
      "##妖": 8389,
      "##圧": 8390,
      "##ɞ": 8391,
      "##ষ": 8392,
      "##繋": 8393,
      "##置": 8394,
      "##淇": 8395,
      "##ฉ": 8396,
      "##Ě": 8397,
      "##ឪ": 8398,
      "##钦": 8399,
      "##로": 8400,
      "##豐": 8401,
      "##菇": 8402,
      "##裳": 8403,
      "##胴": 8404,
      "##饼": 8405,
      "##裂": 8406,
      "##პ": 8407,
      "##晉": 8408,
      "##狀": 8409,
      "##琬": 8410,
      "##芯": 8411,
      "##來": 8412,
      "##莱": 8413,
      "##店": 8414,
      "##ྣ": 8415,
      "##ἷ": 8416,
      "##釗": 8417,
      "##强": 8418,
      "##岬": 8419,
      "##张": 8420,
      "##კ": 8421,
      "##磲": 8422,
      "##億": 8423,
      "##繼": 8424,
      "##弁": 8425,
      "##当": 8426,
      "##镇": 8427,
      "##霹": 8428,
      "##炮": 8429,
      "##夷": 8430,
      "##級": 8431,
      "##丙": 8432,
      "##예": 8433,
      "##술": 8434,
      "##漸": 8435,
      "##棲": 8436,
      "##艺": 8437,
      "##蘅": 8438,
      "##們": 8439,
      "##Ս": 8440,
      "##Հ": 8441,
      "##托": 8442,
      "##독": 8443,
      "##립": 8444,
      "##병": 8445,
      "##恵": 8446,
      "##均": 8447,
      "##犖": 8448,
      "##撲": 8449,
      "##铭": 8450,
      "##选": 8451,
      "##虐": 8452,
      "##목": 8453,
      "##적": 8454,
      "##학": 8455,
      "##靼": 8456,
      "##迪": 8457,
      "##柔": 8458,
      "##辉": 8459,
      "##淹": 8460,
      "##穗": 8461,
      "##গ": 8462,
      "##乎": 8463,
      "##ఠ": 8464,
      "##舟": 8465,
      "##개": 8466,
      "##芦": 8467,
      "##跳": 8468,
      "##還": 8469,
      "##鸿": 8470,
      "##廊": 8471,
      "##颗": 8472,
      "##准": 8473,
      "##伐": 8474,
      "##袈": 8475,
      "##裟": 8476,
      "##স": 8477,
      "##ܚ": 8478,
      "##脂": 8479,
      "##処": 8480,
      "##ぉ": 8481,
      "##ぞ": 8482,
      "##抵": 8483,
      "##準": 8484,
      "##続": 8485,
      "##庵": 8486,
      "##센": 8487,
      "##터": 8488,
      "##코": 8489,
      "##ᡴ": 8490,
      "##ᠪ": 8491,
      "##旅": 8492,
      "##勘": 8493,
      "##譜": 8494,
      "##鹼": 8495,
      "##he": 8496,
      "the": 8497,
      "##er": 8498,
      "##in": 8499,
      "##on": 8500,
      "##ed": 8501,
      "##nd": 8502,
      "##or": 8503,
      "##at": 8504,
      "##es": 8505,
      "##ar": 8506,
      "##en": 8507,
      "of": 8508,
      "##an": 8509,
      "##al": 8510,
      "in": 8511,
      "##it": 8512,
      "##ing": 8513,
      "##as": 8514,
      "##is": 8515,
      "and": 8516,
      "to": 8517,
      "##ic": 8518,
      "##ou": 8519,
      "##ion": 8520,
      "##re": 8521,
      "##om": 8522,
      "##il": 8523,
      "##el": 8524,
      "##ec": 8525,
      "##ent": 8526,
      "th": 8527,
      "##st": 8528,
      "##am": 8529,
      "##et": 8530,
      "##ro": 8531,
      "##ad": 8532,
      "##ac": 8533,
      "was": 8534,
      "##ur": 8535,
      "##ol": 8536,
      "on": 8537,
      "The": 8538,
      "##le": 8539,
      "##ly": 8540,
      "##ir": 8541,
      "for": 8542,
      "##id": 8543,
      "##ter": 8544,
      "##iv": 8545,
      "##ig": 8546,
      "##ot": 8547,
      "as": 8548,
      "##ut": 8549,
      "##ow": 8550,
      "##im": 8551,
      "##ith": 8552,
      "##ay": 8553,
      "##em": 8554,
      "st": 8555,
      "##ation": 8556,
      "with": 8557,
      "be": 8558,
      "that": 8559,
      "##ers": 8560,
      "wh": 8561,
      "re": 8562,
      "##ts": 8563,
      "##us": 8564,
      "by": 8565,
      "##ch": 8566,
      "##ce": 8567,
      "##th": 8568,
      "al": 8569,
      "##ver": 8570,
      "is": 8571,
      "con": 8572,
      "##ul": 8573,
      "at": 8574,
      "##os": 8575,
      "##and": 8576,
      "##ain": 8577,
      "19": 8578,
      "an": 8579,
      "##her": 8580,
      "fr": 8581,
      "##ag": 8582,
      "##av": 8583,
      "##um": 8584,
      "##est": 8585,
      "his": 8586,
      "##od": 8587,
      "##ess": 8588,
      "##ct": 8589,
      "he": 8590,
      "from": 8591,
      "##ri": 8592,
      "com": 8593,
      "##un": 8594,
      "20": 8595,
      "##ap": 8596,
      "pro": 8597,
      "##op": 8598,
      "##ere": 8599,
      "##ill": 8600,
      "##ew": 8601,
      "##ist": 8602,
      "su": 8603,
      "##igh": 8604,
      "In": 8605,
      "##ear": 8606,
      "##ies": 8607,
      "##ect": 8608,
      "##ber": 8609,
      "##ld": 8610,
      "##ard": 8611,
      "de": 8612,
      "##if": 8613,
      "##all": 8614,
      "##ak": 8615,
      "were": 8616,
      "##ich": 8617,
      "##oc": 8618,
      "##ate": 8619,
      "##ab": 8620,
      "##pp": 8621,
      "it": 8622,
      "se": 8623,
      "ex": 8624,
      "##ong": 8625,
      "##art": 8626,
      "##ud": 8627,
      "##ort": 8628,
      "ch": 8629,
      "or": 8630,
      "##gh": 8631,
      "##ated": 8632,
      "pl": 8633,
      "sh": 8634,
      "##ity": 8635,
      "##se": 8636,
      "##ive": 8637,
      "##ame": 8638,
      "##ore": 8639,
      "##ant": 8640,
      "had": 8641,
      "##our": 8642,
      "##ack": 8643,
      "St": 8644,
      "##rou": 8645,
      "##ip": 8646,
      "which": 8647,
      "##ast": 8648,
      "##ge": 8649,
      "##ov": 8650,
      "##ian": 8651,
      "pr": 8652,
      "are": 8653,
      "##ment": 8654,
      "##ell": 8655,
      "##ial": 8656,
      "not": 8657,
      "##ost": 8658,
      "sp": 8659,
      "##nt": 8660,
      "tr": 8661,
      "##qu": 8662,
      "##ia": 8663,
      "##ord": 8664,
      "##ust": 8665,
      "##ary": 8666,
      "##pt": 8667,
      "##ther": 8668,
      "##ine": 8669,
      "##rit": 8670,
      "le": 8671,
      "##ical": 8672,
      "##ave": 8673,
      "rec": 8674,
      "Ch": 8675,
      "##ight": 8676,
      "##pl": 8677,
      "##ie": 8678,
      "200": 8679,
      "##out": 8680,
      "##cc": 8681,
      "inc": 8682,
      "##fter": 8683,
      "##ould": 8684,
      "but": 8685,
      "fir": 8686,
      "##ish": 8687,
      "##ous": 8688,
      "##ions": 8689,
      "##ff": 8690,
      "int": 8691,
      "cont": 8692,
      "ar": 8693,
      "whe": 8694,
      "##so": 8695,
      "##ure": 8696,
      "her": 8697,
      "##og": 8698,
      "##ue": 8699,
      "first": 8700,
      "##ub": 8701,
      "cl": 8702,
      "##wo": 8703,
      "##per": 8704,
      "its": 8705,
      "##ass": 8706,
      "their": 8707,
      "##ign": 8708,
      "##ok": 8709,
      "##ork": 8710,
      "##orm": 8711,
      "res": 8712,
      "##ru": 8713,
      "##ra": 8714,
      "##oll": 8715,
      "##ome": 8716,
      "##ater": 8717,
      "en": 8718,
      "also": 8719,
      "##00": 8720,
      "ab": 8721,
      "##ond": 8722,
      "ad": 8723,
      "##age": 8724,
      "##ide": 8725,
      "He": 8726,
      "##ry": 8727,
      "##mer": 8728,
      "##hed": 8729,
      "##ire": 8730,
      "rel": 8731,
      "##ans": 8732,
      "##ime": 8733,
      "per": 8734,
      "un": 8735,
      "Th": 8736,
      "one": 8737,
      "have": 8738,
      "sc": 8739,
      "##du": 8740,
      "##end": 8741,
      "##ally": 8742,
      "##ence": 8743,
      "##own": 8744,
      "##ound": 8745,
      "18": 8746,
      "##ile": 8747,
      "##ance": 8748,
      "two": 8749,
      "##ition": 8750,
      "##ough": 8751,
      "who": 8752,
      "##iz": 8753,
      "##ree": 8754,
      "##uring": 8755,
      "been": 8756,
      "Al": 8757,
      "bec": 8758,
      "has": 8759,
      "ag": 8760,
      "##ely": 8761,
      "app": 8762,
      "##pr": 8763,
      "201": 8764,
      "all": 8765,
      "dis": 8766,
      "##act": 8767,
      "ser": 8768,
      "this": 8769,
      "##lud": 8770,
      "##ory": 8771,
      "##ey": 8772,
      "##ice": 8773,
      "year": 8774,
      "##ations": 8775,
      "##ember": 8776,
      "##ach": 8777,
      "off": 8778,
      "after": 8779,
      "##ark": 8780,
      "part": 8781,
      "comp": 8782,
      "It": 8783,
      "des": 8784,
      "play": 8785,
      "over": 8786,
      "##ace": 8787,
      "##land": 8788,
      "out": 8789,
      "they": 8790,
      "att": 8791,
      "##ade": 8792,
      "##ik": 8793,
      "##eas": 8794,
      "##ric": 8795,
      "other": 8796,
      "##ib": 8797,
      "man": 8798,
      "##ult": 8799,
      "##ens": 8800,
      "im": 8801,
      "includ": 8802,
      "##over": 8803,
      "##ced": 8804,
      "##ail": 8805,
      "##ee": 8806,
      "##urn": 8807,
      "##wn": 8808,
      "would": 8809,
      "us": 8810,
      "up": 8811,
      "##ind": 8812,
      "##ang": 8813,
      "time": 8814,
      "##man": 8815,
      "into": 8816,
      "pre": 8817,
      "##ount": 8818,
      "##ward": 8819,
      "##oin": 8820,
      "him": 8821,
      "##ite": 8822,
      "##oy": 8823,
      "On": 8824,
      "Un": 8825,
      "##ates": 8826,
      "she": 8827,
      "##een": 8828,
      "ev": 8829,
      "##ng": 8830,
      "##ilm": 8831,
      "##able": 8832,
      "##nder": 8833,
      "##ited": 8834,
      "##amp": 8835,
      "##ied": 8836,
      "##ever": 8837,
      "##ction": 8838,
      "comm": 8839,
      "##ors": 8840,
      "inter": 8841,
      "##ose": 8842,
      "##ents": 8843,
      "##ons": 8844,
      "##rough": 8845,
      "##les": 8846,
      "##ood": 8847,
      "##aw": 8848,
      "##ces": 8849,
      "more": 8850,
      "work": 8851,
      "Ar": 8852,
      "##old": 8853,
      "##ock": 8854,
      "Fr": 8855,
      "##form": 8856,
      "##ings": 8857,
      "##one": 8858,
      "##vel": 8859,
      "##ick": 8860,
      "##etw": 8861,
      "##ild": 8862,
      "new": 8863,
      "##eat": 8864,
      "sec": 8865,
      "##ft": 8866,
      "when": 8867,
      "##inal": 8868,
      "film": 8869,
      "cons": 8870,
      "##fer": 8871,
      "##ious": 8872,
      "##way": 8873,
      "##ake": 8874,
      "Mar": 8875,
      "##iss": 8876,
      "##aus": 8877,
      "##att": 8878,
      "##reat": 8879,
      "##round": 8880,
      "##eg": 8881,
      "##rop": 8882,
      "rem": 8883,
      "##ict": 8884,
      "##rib": 8885,
      "##ss": 8886,
      "##ved": 8887,
      "##ob": 8888,
      "dec": 8889,
      "car": 8890,
      "##gan": 8891,
      "te": 8892,
      "during": 8893,
      "##ual": 8894,
      "##orth": 8895,
      "again": 8896,
      "##port": 8897,
      "##ubl": 8898,
      "most": 8899,
      "fl": 8900,
      "game": 8901,
      "##eld": 8902,
      "char": 8903,
      "##oth": 8904,
      "them": 8905,
      "##hip": 8906,
      "only": 8907,
      "199": 8908,
      "##ason": 8909,
      "##ix": 8910,
      "ear": 8911,
      "##etween": 8912,
      "##ollow": 8913,
      "than": 8914,
      "##ered": 8915,
      "##ep": 8916,
      "##ational": 8917,
      "##ev": 8918,
      "New": 8919,
      "about": 8920,
      "produ": 8921,
      "cent": 8922,
      "kn": 8923,
      "ret": 8924,
      "##tern": 8925,
      "##ug": 8926,
      "song": 8927,
      "can": 8928,
      "##fore": 8929,
      "##outh": 8930,
      "later": 8931,
      "between": 8932,
      "##ted": 8933,
      "under": 8934,
      "##orn": 8935,
      "##ters": 8936,
      "##eb": 8937,
      "three": 8938,
      "##hn": 8939,
      "##ank": 8940,
      "##ook": 8941,
      "##iew": 8942,
      "##aid": 8943,
      "##ath": 8944,
      "through": 8945,
      "##orld": 8946,
      "releas": 8947,
      "num": 8948,
      "acc": 8949,
      "while": 8950,
      "end": 8951,
      "##meric": 8952,
      "Americ": 8953,
      "act": 8954,
      "##ral": 8955,
      "pos": 8956,
      "##ex": 8957,
      "sub": 8958,
      "##ph": 8959,
      "so": 8960,
      "##ular": 8961,
      "ass": 8962,
      "where": 8963,
      "bu": 8964,
      "day": 8965,
      "reg": 8966,
      "form": 8967,
      "second": 8968,
      "Com": 8969,
      "##ener": 8970,
      "##oun": 8971,
      "##ision": 8972,
      "made": 8973,
      "##ames": 8974,
      "##ived": 8975,
      "##te": 8976,
      "##ve": 8977,
      "record": 8978,
      "def": 8979,
      "ac": 8980,
      "##red": 8981,
      "000": 8982,
      "##bum": 8983,
      "four": 8984,
      "##als": 8985,
      "follow": 8986,
      "##ton": 8987,
      "##ating": 8988,
      "season": 8989,
      "##ool": 8990,
      "bas": 8991,
      "ep": 8992,
      "am": 8993,
      "some": 8994,
      "##son": 8995,
      "such": 8996,
      "ind": 8997,
      "pe": 8998,
      "##ished": 8999,
      "mov": 9000,
      "##ept": 9001,
      "before": 9002,
      "##ained": 9003,
      "##hes": 9004,
      "mus": 9005,
      "there": 9006,
      "mon": 9007,
      "writ": 9008,
      "As": 9009,
      "##ics": 9010,
      "Jo": 9011,
      "spec": 9012,
      "10": 9013,
      "##io": 9014,
      "sy": 9015,
      "years": 9016,
      "team": 9017,
      "At": 9018,
      "##ike": 9019,
      "##ont": 9020,
      "##ode": 9021,
      "This": 9022,
      "Sh": 9023,
      "lar": 9024,
      "##ning": 9025,
      "gr": 9026,
      "album": 9027,
      "Sp": 9028,
      "##ected": 9029,
      "Pr": 9030,
      "##ily": 9031,
      "##owever": 9032,
      "bl": 9033,
      "el": 9034,
      "used": 9035,
      "supp": 9036,
      "call": 9037,
      "sur": 9038,
      "##ific": 9039,
      "##ery": 9040,
      "##hen": 9041,
      "high": 9042,
      "##ury": 9043,
      "publ": 9044,
      "##ection": 9045,
      "being": 9046,
      "epis": 9047,
      "##anc": 9048,
      "##ll": 9049,
      "then": 9050,
      "##aj": 9051,
      "##air": 9052,
      "An": 9053,
      "##velop": 9054,
      "inv": 9055,
      "loc": 9056,
      "me": 9057,
      "do": 9058,
      "br": 9059,
      "17": 9060,
      "against": 9061,
      "##other": 9062,
      "##ement": 9063,
      "qu": 9064,
      "##au": 9065,
      "##ten": 9066,
      "##ife": 9067,
      "pres": 9068,
      "##ower": 9069,
      "number": 9070,
      "After": 9071,
      "charac": 9072,
      "sever": 9073,
      "co": 9074,
      "add": 9075,
      "show": 9076,
      "set": 9077,
      "##ane": 9078,
      "##ince": 9079,
      "became": 9080,
      "Brit": 9081,
      "we": 9082,
      "air": 9083,
      "##ause": 9084,
      "lead": 9085,
      "perform": 9086,
      "no": 9087,
      "##ron": 9088,
      "including": 9089,
      "sing": 9090,
      "##ines": 9091,
      "United": 9092,
      "found": 9093,
      "##erm": 9094,
      "well": 9095,
      "Sc": 9096,
      "back": 9097,
      "##gr": 9098,
      "##ale": 9099,
      "##ised": 9100,
      "both": 9101,
      "15": 9102,
      "pol": 9103,
      "cap": 9104,
      "series": 9105,
      "198": 9106,
      "12": 9107,
      "str": 9108,
      "##ier": 9109,
      "rev": 9110,
      "##ise": 9111,
      "##ober": 9112,
      "war": 9113,
      "##uc": 9114,
      "##its": 9115,
      "Br": 9116,
      "Wh": 9117,
      "##ures": 9118,
      "##itt": 9119,
      "##pen": 9120,
      "appear": 9121,
      "She": 9122,
      "##fl": 9123,
      "##ivers": 9124,
      "main": 9125,
      "194": 9126,
      "##are": 9127,
      "min": 9128,
      "##iet": 9129,
      "##oad": 9130,
      "##overn": 9131,
      "did": 9132,
      "dr": 9133,
      "##ann": 9134,
      "##ole": 9135,
      "##az": 9136,
      "##led": 9137,
      "go": 9138,
      "War": 9139,
      "##olog": 9140,
      "develop": 9141,
      "##roup": 9142,
      "met": 9143,
      "Le": 9144,
      "##elf": 9145,
      "##ities": 9146,
      "##ert": 9147,
      "long": 9148,
      "Eng": 9149,
      "##any": 9150,
      "##ross": 9151,
      "em": 9152,
      "##ird": 9153,
      "mill": 9154,
      "##ful": 9155,
      "John": 9156,
      "ship": 9157,
      "episode": 9158,
      "mat": 9159,
      "##ley": 9160,
      "##ield": 9161,
      "dire": 9162,
      "ext": 9163,
      "said": 9164,
      "cre": 9165,
      "stud": 9166,
      "##uch": 9167,
      "Cl": 9168,
      "many": 9169,
      "bro": 9170,
      "##ative": 9171,
      "16": 9172,
      "could": 9173,
      "rece": 9174,
      "##ash": 9175,
      "orig": 9176,
      "contin": 9177,
      "several": 9178,
      "American": 9179,
      "##iver": 9180,
      "##though": 9181,
      "Ind": 9182,
      "dif": 9183,
      "##ase": 9184,
      "##eng": 9185,
      "##ah": 9186,
      "##ather": 9187,
      "inst": 9188,
      "pop": 9189,
      "##ouse": 9190,
      "##emb": 9191,
      "known": 9192,
      "##sp": 9193,
      "##oot": 9194,
      "197": 9195,
      "##der": 9196,
      "##ins": 9197,
      "11": 9198,
      "Aust": 9199,
      "##ually": 9200,
      "196": 9201,
      "conc": 9202,
      "##eed": 9203,
      "par": 9204,
      "##up": 9205,
      "feat": 9206,
      "##iam": 9207,
      "##ident": 9208,
      "##erson": 9209,
      "##ks": 9210,
      "ob": 9211,
      "##ued": 9212,
      "sm": 9213,
      "return": 9214,
      "began": 9215,
      "any": 9216,
      "##hy": 9217,
      "design": 9218,
      "##row": 9219,
      "prov": 9220,
      "unt": 9221,
      "near": 9222,
      "compl": 9223,
      "desc": 9224,
      "sign": 9225,
      "##chool": 9226,
      "##ism": 9227,
      "Bl": 9228,
      "##ople": 9229,
      "est": 9230,
      "##ange": 9231,
      "##aking": 9232,
      "trans": 9233,
      "##0s": 9234,
      "exp": 9235,
      "##ccess": 9236,
      "##my": 9237,
      "##ty": 9238,
      "##ern": 9239,
      "run": 9240,
      "early": 9241,
      "##ets": 9242,
      "art": 9243,
      "##ized": 9244,
      "dist": 9245,
      "##enn": 9246,
      "music": 9247,
      "own": 9248,
      "you": 9249,
      "released": 9250,
      "##ided": 9251,
      "until": 9252,
      "called": 9253,
      "eff": 9254,
      "US": 9255,
      "##imes": 9256,
      "##ull": 9257,
      "##rap": 9258,
      "bel": 9259,
      "Con": 9260,
      "##els": 9261,
      "##ists": 9262,
      "resp": 9263,
      "pass": 9264,
      "##stem": 9265,
      "For": 9266,
      "##ured": 9267,
      "##ars": 9268,
      "fin": 9269,
      "##une": 9270,
      "May": 9271,
      "##ially": 9272,
      "##ution": 9273,
      "prev": 9274,
      "disc": 9275,
      "crit": 9276,
      "col": 9277,
      "##osed": 9278,
      "gener": 9279,
      "##ium": 9280,
      "along": 9281,
      "direct": 9282,
      "sl": 9283,
      "Car": 9284,
      "million": 9285,
      "Ger": 9286,
      "##ax": 9287,
      "British": 9288,
      "Tr": 9289,
      "group": 9290,
      "offic": 9291,
      "13": 9292,
      "fam": 9293,
      "##ession": 9294,
      "##ajor": 9295,
      "these": 9296,
      "mod": 9297,
      "imp": 9298,
      "may": 9299,
      "##und": 9300,
      "Ad": 9301,
      "open": 9302,
      "mil": 9303,
      "poin": 9304,
      "##ains": 9305,
      "land": 9306,
      "hist": 9307,
      "count": 9308,
      "sim": 9309,
      "Aug": 9310,
      "##ments": 9311,
      "##ently": 9312,
      "govern": 9313,
      "Sept": 9314,
      "success": 9315,
      "September": 9316,
      "August": 9317,
      "##amed": 9318,
      "World": 9319,
      "##ible": 9320,
      "##ues": 9321,
      "oper": 9322,
      "States": 9323,
      "down": 9324,
      "attack": 9325,
      "use": 9326,
      "same": 9327,
      "##wards": 9328,
      "All": 9329,
      "describ": 9330,
      "batt": 9331,
      "people": 9332,
      "##aced": 9333,
      "character": 9334,
      "because": 9335,
      "##yp": 9336,
      "serv": 9337,
      "##aining": 9338,
      "14": 9339,
      "##cept": 9340,
      "like": 9341,
      "##ired": 9342,
      "Ju": 9343,
      "arr": 9344,
      "##ven": 9345,
      "Is": 9346,
      "##ended": 9347,
      "Col": 9348,
      "Pl": 9349,
      "##ner": 9350,
      "around": 9351,
      "dep": 9352,
      "though": 9353,
      "win": 9354,
      "km": 9355,
      "##aving": 9356,
      "195": 9357,
      "gu": 9358,
      "const": 9359,
      "took": 9360,
      "occ": 9361,
      "##erv": 9362,
      "##ting": 9363,
      "Oct": 9364,
      "Austral": 9365,
      "##por": 9366,
      "German": 9367,
      "ann": 9368,
      "Gr": 9369,
      "##ruct": 9370,
      "Nov": 9371,
      "wee": 9372,
      "id": 9373,
      "following": 9374,
      "six": 9375,
      "##ove": 9376,
      "north": 9377,
      "193": 9378,
      "However": 9379,
      "system": 9380,
      "Pro": 9381,
      "##uss": 9382,
      "##gg": 9383,
      "adv": 9384,
      "class": 9385,
      "final": 9386,
      "received": 9387,
      "head": 9388,
      "October": 9389,
      "##ects": 9390,
      "consid": 9391,
      "##ives": 9392,
      "prom": 9393,
      "##ility": 9394,
      "complet": 9395,
      "support": 9396,
      "##ically": 9397,
      "Dec": 9398,
      "191": 9399,
      "ever": 9400,
      "state": 9401,
      "##ink": 9402,
      "each": 9403,
      "##res": 9404,
      "##ret": 9405,
      "##raft": 9406,
      "##ison": 9407,
      "five": 9408,
      "build": 9409,
      "aut": 9410,
      "York": 9411,
      "century": 9412,
      "var": 9413,
      "area": 9414,
      "They": 9415,
      "##ina": 9416,
      "will": 9417,
      "##ately": 9418,
      "small": 9419,
      "##ox": 9420,
      "##oss": 9421,
      "North": 9422,
      "partic": 9423,
      "##iving": 9424,
      "##ored": 9425,
      "start": 9426,
      "By": 9427,
      "##ians": 9428,
      "##ject": 9429,
      "June": 9430,
      "##ording": 9431,
      "city": 9432,
      "life": 9433,
      "##cl": 9434,
      "Chr": 9435,
      "mar": 9436,
      "Jan": 9437,
      "Har": 9438,
      "##ene": 9439,
      "##sc": 9440,
      "contro": 9441,
      "major": 9442,
      "King": 9443,
      "public": 9444,
      "##ission": 9445,
      "July": 9446,
      "band": 9447,
      "vers": 9448,
      "November": 9449,
      "##med": 9450,
      "coll": 9451,
      "##omet": 9452,
      "##inc": 9453,
      "Can": 9454,
      "Comm": 9455,
      "##urch": 9456,
      "##ble": 9457,
      "Will": 9458,
      "##ute": 9459,
      "ent": 9460,
      "world": 9461,
      "since": 9462,
      "med": 9463,
      "##ean": 9464,
      "single": 9465,
      "Apr": 9466,
      "rest": 9467,
      "April": 9468,
      "##oard": 9469,
      "det": 9470,
      "Mc": 9471,
      "##lish": 9472,
      "##uary": 9473,
      "March": 9474,
      "fe": 9475,
      "just": 9476,
      "result": 9477,
      "red": 9478,
      "##enc": 9479,
      "##ural": 9480,
      "Ed": 9481,
      "##hest": 9482,
      "##ried": 9483,
      "##aim": 9484,
      "##gin": 9485,
      "##ively": 9486,
      "differ": 9487,
      "30": 9488,
      "hel": 9489,
      "##ilt": 9490,
      "allow": 9491,
      "##ants": 9492,
      "Or": 9493,
      "turn": 9494,
      "##ext": 9495,
      "last": 9496,
      "##idge": 9497,
      "##ague": 9498,
      "left": 9499,
      "large": 9500,
      "##get": 9501,
      "line": 9502,
      "##ales": 9503,
      "South": 9504,
      "south": 9505,
      "Bro": 9506,
      "##ified": 9507,
      "During": 9508,
      "Ge": 9509,
      "##ke": 9510,
      "book": 9511,
      "##avy": 9512,
      "school": 9513,
      "25": 9514,
      "Ph": 9515,
      "December": 9516,
      "third": 9517,
      "incre": 9518,
      "##par": 9519,
      "month": 9520,
      "##ined": 9521,
      "appro": 9522,
      "due": 9523,
      "Re": 9524,
      "played": 9525,
      "much": 9526,
      "event": 9527,
      "if": 9528,
      "care": 9529,
      "##ench": 9530,
      "another": 9531,
      "##rote": 9532,
      "January": 9533,
      "included": 9534,
      "##ention": 9535,
      "what": 9536,
      "192": 9537,
      "##by": 9538,
      "##ograp": 9539,
      "based": 9540,
      "place": 9541,
      "##aged": 9542,
      "II": 9543,
      "##ient": 9544,
      "##ony": 9545,
      "##ped": 9546,
      "ph": 9547,
      "##side": 9548,
      "expl": 9549,
      "Eu": 9550,
      "government": 9551,
      "##ling": 9552,
      "person": 9553,
      "Fl": 9554,
      "wrote": 9555,
      "##apan": 9556,
      "When": 9557,
      "cr": 9558,
      "track": 9559,
      "camp": 9560,
      "old": 9561,
      "tit": 9562,
      "bre": 9563,
      "##alf": 9564,
      "death": 9565,
      "##ages": 9566,
      "name": 9567,
      "prot": 9568,
      "##ott": 9569,
      "Japan": 9570,
      "report": 9571,
      "short": 9572,
      "##ience": 9573,
      "won": 9574,
      "child": 9575,
      "larg": 9576,
      "kill": 9577,
      "power": 9578,
      "story": 9579,
      "##ideo": 9580,
      "##ody": 9581,
      "##oman": 9582,
      "review": 9583,
      "##ital": 9584,
      "vis": 9585,
      "##ats": 9586,
      "home": 9587,
      "conv": 9588,
      "led": 9589,
      "Be": 9590,
      "##ps": 9591,
      "requ": 9592,
      "described": 9593,
      "gun": 9594,
      "previous": 9595,
      "##ides": 9596,
      "cour": 9597,
      "family": 9598,
      "progr": 9599,
      "El": 9600,
      "way": 9601,
      "De": 9602,
      "##tain": 9603,
      "eng": 9604,
      "##urr": 9605,
      "named": 9606,
      "##urther": 9607,
      "Mus": 9608,
      "now": 9609,
      "dem": 9610,
      "##ister": 9611,
      "del": 9612,
      "Gu": 9613,
      "rep": 9614,
      "even": 9615,
      "men": 9616,
      "##iven": 9617,
      "##ilar": 9618,
      "##omin": 9619,
      "make": 9620,
      "##embers": 9621,
      "##reen": 9622,
      "##ress": 9623,
      "port": 9624,
      "##iod": 9625,
      "##iversity": 9626,
      "attem": 9627,
      "##ested": 9628,
      "##oute": 9629,
      "100": 9630,
      "##aff": 9631,
      "##ivision": 9632,
      "##ior": 9633,
      "repl": 9634,
      "##itions": 9635,
      "opp": 9636,
      "leg": 9637,
      "games": 9638,
      "##ached": 9639,
      "command": 9640,
      "term": 9641,
      "hand": 9642,
      "##ival": 9643,
      "poss": 9644,
      "dam": 9645,
      "belie": 9646,
      "very": 9647,
      "And": 9648,
      "##ren": 9649,
      "His": 9650,
      "##ne": 9651,
      "those": 9652,
      "Par": 9653,
      "best": 9654,
      "##ract": 9655,
      "##ged": 9656,
      "##mp": 9657,
      "Feb": 9658,
      "Europ": 9659,
      "po": 9660,
      "ele": 9661,
      "Febru": 9662,
      "February": 9663,
      "organ": 9664,
      "iss": 9665,
      "still": 9666,
      "top": 9667,
      "next": 9668,
      "species": 9669,
      "Christ": 9670,
      "sk": 9671,
      "view": 9672,
      "##ences": 9673,
      "There": 9674,
      "National": 9675,
      "##hor": 9676,
      "##ances": 9677,
      "##aken": 9678,
      "##akes": 9679,
      "##oci": 9680,
      "original": 9681,
      "ed": 9682,
      "Man": 9683,
      "Bar": 9684,
      "##oyal": 9685,
      "water": 9686,
      "join": 9687,
      "addition": 9688,
      "##ness": 9689,
      "infl": 9690,
      "list": 9691,
      "##ature": 9692,
      "##sh": 9693,
      "within": 9694,
      "period": 9695,
      "Am": 9696,
      "##rew": 9697,
      "##ented": 9698,
      "French": 9699,
      "members": 9700,
      "##yl": 9701,
      "mark": 9702,
      "ref": 9703,
      "built": 9704,
      "held": 9705,
      "deb": 9706,
      "exper": 9707,
      "##oon": 9708,
      "##ched": 9709,
      "##augh": 9710,
      "release": 9711,
      "although": 9712,
      "late": 9713,
      "former": 9714,
      "Char": 9715,
      "match": 9716,
      "great": 9717,
      "dest": 9718,
      "##ney": 9719,
      "sold": 9720,
      "2010": 9721,
      "##ech": 9722,
      "21": 9723,
      "##ared": 9724,
      "conf": 9725,
      "av": 9726,
      "video": 9727,
      "caus": 9728,
      "storm": 9729,
      "##ropical": 9730,
      "##ipp": 9731,
      "##ights": 9732,
      "##omb": 9733,
      "##af": 9734,
      "West": 9735,
      "init": 9736,
      "tri": 9737,
      "role": 9738,
      "William": 9739,
      "##hel": 9740,
      "came": 9741,
      "estab": 9742,
      "##eal": 9743,
      "tw": 9744,
      "days": 9745,
      "mid": 9746,
      "##ulation": 9747,
      "##uted": 9748,
      "Air": 9749,
      "real": 9750,
      "stand": 9751,
      "Her": 9752,
      "##ple": 9753,
      "polit": 9754,
      "##ead": 9755,
      "##ham": 9756,
      "however": 9757,
      "my": 9758,
      "##itary": 9759,
      "Min": 9760,
      "2008": 9761,
      "##aster": 9762,
      "24": 9763,
      "prop": 9764,
      "##ices": 9765,
      "##line": 9766,
      "##ased": 9767,
      "wind": 9768,
      "2009": 9769,
      "##atic": 9770,
      "few": 9771,
      "town": 9772,
      "Geor": 9773,
      "##ung": 9774,
      "side": 9775,
      "##ball": 9776,
      "continued": 9777,
      "post": 9778,
      "equ": 9779,
      "often": 9780,
      "##eter": 9781,
      "Ear": 9782,
      "Des": 9783,
      "local": 9784,
      "tel": 9785,
      "2011": 9786,
      "repr": 9787,
      "##ator": 9788,
      "##ays": 9789,
      "among": 9790,
      "similar": 9791,
      "##ruction": 9792,
      "Mich": 9793,
      "sw": 9794,
      "hum": 9795,
      "No": 9796,
      "##omen": 9797,
      "##urs": 9798,
      "claim": 9799,
      "##estern": 9800,
      "##alk": 9801,
      "##pite": 9802,
      "##elt": 9803,
      "##ying": 9804,
      "England": 9805,
      "##orts": 9806,
      "##read": 9807,
      "##gy": 9808,
      "##reet": 9809,
      "different": 9810,
      "further": 9811,
      "22": 9812,
      "##ops": 9813,
      "##ense": 9814,
      "beh": 9815,
      "Rec": 9816,
      "##ese": 9817,
      "##ology": 9818,
      "typ": 9819,
      "sent": 9820,
      "level": 9821,
      "Dav": 9822,
      "fre": 9823,
      "considered": 9824,
      "##na": 9825,
      "take": 9826,
      "law": 9827,
      "One": 9828,
      "tot": 9829,
      "2007": 9830,
      "career": 9831,
      "week": 9832,
      "##app": 9833,
      "production": 9834,
      "Ex": 9835,
      "##lex": 9836,
      "##press": 9837,
      "##ler": 9838,
      "cover": 9839,
      "ant": 9840,
      "##ards": 9841,
      "half": 9842,
      "Park": 9843,
      "##ampions": 9844,
      "City": 9845,
      "having": 9846,
      "##ves": 9847,
      "Ang": 9848,
      "##arm": 9849,
      "##con": 9850,
      "Acc": 9851,
      "##ea": 9852,
      "English": 9853,
      "mag": 9854,
      "east": 9855,
      "road": 9856,
      "moved": 9857,
      "cor": 9858,
      "##ittle": 9859,
      "enter": 9860,
      "west": 9861,
      "every": 9862,
      "without": 9863,
      "Although": 9864,
      "##rodu": 9865,
      "Cal": 9866,
      "Cent": 9867,
      "2012": 9868,
      "plan": 9869,
      "position": 9870,
      "##ones": 9871,
      "player": 9872,
      "become": 9873,
      "history": 9874,
      "version": 9875,
      "23": 9876,
      "arm": 9877,
      "##ondon": 9878,
      "see": 9879,
      "##ford": 9880,
      "Count": 9881,
      "elect": 9882,
      "influ": 9883,
      "##ize": 9884,
      "London": 9885,
      "star": 9886,
      "house": 9887,
      "Su": 9888,
      "Batt": 9889,
      "sound": 9890,
      "##yle": 9891,
      "commun": 9892,
      "##ck": 9893,
      "##atter": 9894,
      "sugg": 9895,
      "strong": 9896,
      "##ests": 9897,
      "cast": 9898,
      "club": 9899,
      "invol": 9900,
      "##self": 9901,
      "tem": 9902,
      "Sw": 9903,
      "##eder": 9904,
      "attempt": 9905,
      "##uck": 9906,
      "written": 9907,
      "With": 9908,
      "You": 9909,
      "190": 9910,
      "stat": 9911,
      "less": 9912,
      "##etter": 9913,
      "announ": 9914,
      "River": 9915,
      "##me": 9916,
      "##ai": 9917,
      "foot": 9918,
      "##iqu": 9919,
      "##ington": 9920,
      "##irc": 9921,
      "##ising": 9922,
      "##ript": 9923,
      "order": 9924,
      "refer": 9925,
      "##ape": 9926,
      "##iety": 9927,
      "##isc": 9928,
      "##ald": 9929,
      "##craft": 9930,
      "aff": 9931,
      "##int": 9932,
      "Canad": 9933,
      "prof": 9934,
      "point": 9935,
      "##sequ": 9936,
      "given": 9937,
      "produc": 9938,
      "rad": 9939,
      "low": 9940,
      "trad": 9941,
      "Gener": 9942,
      "##aul": 9943,
      "hig": 9944,
      "want": 9945,
      "University": 9946,
      "gave": 9947,
      "Pol": 9948,
      "pat": 9949,
      "##iend": 9950,
      "While": 9951,
      "never": 9952,
      "##ailed": 9953,
      "chang": 9954,
      "##ories": 9955,
      "returned": 9956,
      "##ration": 9957,
      "##aly": 9958,
      "comb": 9959,
      "Dr": 9960,
      "soc": 9961,
      "repres": 9962,
      "##urric": 9963,
      "##ett": 9964,
      "total": 9965,
      "vict": 9966,
      "##ots": 9967,
      "##ches": 9968,
      "fact": 9969,
      "##roy": 9970,
      "High": 9971,
      "good": 9972,
      "##aun": 9973,
      "En": 9974,
      "control": 9975,
      "country": 9976,
      "##amb": 9977,
      "company": 9978,
      "went": 9979,
      "fire": 9980,
      "capt": 9981,
      "friend": 9982,
      "##ours": 9983,
      "import": 9984,
      "##ges": 9985,
      "published": 9986,
      "Ab": 9987,
      "##evision": 9988,
      "produced": 9989,
      "Sm": 9990,
      "##ably": 9991,
      "find": 9992,
      "##aying": 9993,
      "reported": 9994,
      "young": 9995,
      "sol": 9996,
      "origin": 9997,
      "2006": 9998,
      "lost": 9999
    },
    "merges": [
      [
        "##h",
        "##e"
      ],
      [
        "t",
        "##he"
      ],
      [
        "##e",
        "##r"
      ],
      [
        "##i",
        "##n"
      ],
      [
        "##o",
        "##n"
      ],
      [
        "##e",
        "##d"
      ],
      [
        "##n",
        "##d"
      ],
      [
        "##o",
        "##r"
      ],
      [
        "##a",
        "##t"
      ],
      [
        "##e",
        "##s"
      ],
      [
        "##a",
        "##r"
      ],
      [
        "##e",
        "##n"
      ],
      [
        "o",
        "##f"
      ],
      [
        "##a",
        "##n"
      ],
      [
        "##a",
        "##l"
      ],
      [
        "i",
        "##n"
      ],
      [
        "##i",
        "##t"
      ],
      [
        "##in",
        "##g"
      ],
      [
        "##a",
        "##s"
      ],
      [
        "##i",
        "##s"
      ],
      [
        "a",
        "##nd"
      ],
      [
        "t",
        "##o"
      ],
      [
        "##i",
        "##c"
      ],
      [
        "##o",
        "##u"
      ],
      [
        "##i",
        "##on"
      ],
      [
        "##r",
        "##e"
      ],
      [
        "##o",
        "##m"
      ],
      [
        "##i",
        "##l"
      ],
      [
        "##e",
        "##l"
      ],
      [
        "##e",
        "##c"
      ],
      [
        "##en",
        "##t"
      ],
      [
        "t",
        "##h"
      ],
      [
        "##s",
        "##t"
      ],
      [
        "##a",
        "##m"
      ],
      [
        "##e",
        "##t"
      ],
      [
        "##r",
        "##o"
      ],
      [
        "##a",
        "##d"
      ],
      [
        "##a",
        "##c"
      ],
      [
        "w",
        "##as"
      ],
      [
        "##u",
        "##r"
      ],
      [
        "##o",
        "##l"
      ],
      [
        "o",
        "##n"
      ],
      [
        "T",
        "##he"
      ],
      [
        "##l",
        "##e"
      ],
      [
        "##l",
        "##y"
      ],
      [
        "##i",
        "##r"
      ],
      [
        "f",
        "##or"
      ],
      [
        "##i",
        "##d"
      ],
      [
        "##t",
        "##er"
      ],
      [
        "##i",
        "##v"
      ],
      [
        "##i",
        "##g"
      ],
      [
        "##o",
        "##t"
      ],
      [
        "a",
        "##s"
      ],
      [
        "##u",
        "##t"
      ],
      [
        "##o",
        "##w"
      ],
      [
        "##i",
        "##m"
      ],
      [
        "##it",
        "##h"
      ],
      [
        "##a",
        "##y"
      ],
      [
        "##e",
        "##m"
      ],
      [
        "s",
        "##t"
      ],
      [
        "##at",
        "##ion"
      ],
      [
        "w",
        "##ith"
      ],
      [
        "b",
        "##e"
      ],
      [
        "th",
        "##at"
      ],
      [
        "##er",
        "##s"
      ],
      [
        "w",
        "##h"
      ],
      [
        "r",
        "##e"
      ],
      [
        "##t",
        "##s"
      ],
      [
        "##u",
        "##s"
      ],
      [
        "b",
        "##y"
      ],
      [
        "##c",
        "##h"
      ],
      [
        "##c",
        "##e"
      ],
      [
        "##t",
        "##h"
      ],
      [
        "a",
        "##l"
      ],
      [
        "##v",
        "##er"
      ],
      [
        "i",
        "##s"
      ],
      [
        "c",
        "##on"
      ],
      [
        "##u",
        "##l"
      ],
      [
        "a",
        "##t"
      ],
      [
        "##o",
        "##s"
      ],
      [
        "##a",
        "##nd"
      ],
      [
        "##a",
        "##in"
      ],
      [
        "1",
        "##9"
      ],
      [
        "a",
        "##n"
      ],
      [
        "##he",
        "##r"
      ],
      [
        "f",
        "##r"
      ],
      [
        "##a",
        "##g"
      ],
      [
        "##a",
        "##v"
      ],
      [
        "##u",
        "##m"
      ],
      [
        "##es",
        "##t"
      ],
      [
        "h",
        "##is"
      ],
      [
        "##o",
        "##d"
      ],
      [
        "##es",
        "##s"
      ],
      [
        "##c",
        "##t"
      ],
      [
        "h",
        "##e"
      ],
      [
        "fr",
        "##om"
      ],
      [
        "##r",
        "##i"
      ],
      [
        "c",
        "##om"
      ],
      [
        "##u",
        "##n"
      ],
      [
        "2",
        "##0"
      ],
      [
        "##a",
        "##p"
      ],
      [
        "p",
        "##ro"
      ],
      [
        "##o",
        "##p"
      ],
      [
        "##er",
        "##e"
      ],
      [
        "##il",
        "##l"
      ],
      [
        "##e",
        "##w"
      ],
      [
        "##is",
        "##t"
      ],
      [
        "s",
        "##u"
      ],
      [
        "##ig",
        "##h"
      ],
      [
        "I",
        "##n"
      ],
      [
        "##e",
        "##ar"
      ],
      [
        "##i",
        "##es"
      ],
      [
        "##ec",
        "##t"
      ],
      [
        "##b",
        "##er"
      ],
      [
        "##l",
        "##d"
      ],
      [
        "##ar",
        "##d"
      ],
      [
        "d",
        "##e"
      ],
      [
        "##i",
        "##f"
      ],
      [
        "##al",
        "##l"
      ],
      [
        "##a",
        "##k"
      ],
      [
        "w",
        "##ere"
      ],
      [
        "##ic",
        "##h"
      ],
      [
        "##o",
        "##c"
      ],
      [
        "##at",
        "##e"
      ],
      [
        "##a",
        "##b"
      ],
      [
        "##p",
        "##p"
      ],
      [
        "i",
        "##t"
      ],
      [
        "s",
        "##e"
      ],
      [
        "e",
        "##x"
      ],
      [
        "##on",
        "##g"
      ],
      [
        "##ar",
        "##t"
      ],
      [
        "##u",
        "##d"
      ],
      [
        "##or",
        "##t"
      ],
      [
        "c",
        "##h"
      ],
      [
        "o",
        "##r"
      ],
      [
        "##g",
        "##h"
      ],
      [
        "##at",
        "##ed"
      ],
      [
        "p",
        "##l"
      ],
      [
        "s",
        "##h"
      ],
      [
        "##it",
        "##y"
      ],
      [
        "##s",
        "##e"
      ],
      [
        "##iv",
        "##e"
      ],
      [
        "##am",
        "##e"
      ],
      [
        "##or",
        "##e"
      ],
      [
        "##an",
        "##t"
      ],
      [
        "h",
        "##ad"
      ],
      [
        "##ou",
        "##r"
      ],
      [
        "##ac",
        "##k"
      ],
      [
        "S",
        "##t"
      ],
      [
        "##r",
        "##ou"
      ],
      [
        "##i",
        "##p"
      ],
      [
        "wh",
        "##ich"
      ],
      [
        "##as",
        "##t"
      ],
      [
        "##g",
        "##e"
      ],
      [
        "##o",
        "##v"
      ],
      [
        "##i",
        "##an"
      ],
      [
        "p",
        "##r"
      ],
      [
        "a",
        "##re"
      ],
      [
        "##m",
        "##ent"
      ],
      [
        "##el",
        "##l"
      ],
      [
        "##i",
        "##al"
      ],
      [
        "n",
        "##ot"
      ],
      [
        "##o",
        "##st"
      ],
      [
        "s",
        "##p"
      ],
      [
        "##n",
        "##t"
      ],
      [
        "t",
        "##r"
      ],
      [
        "##q",
        "##u"
      ],
      [
        "##i",
        "##a"
      ],
      [
        "##or",
        "##d"
      ],
      [
        "##u",
        "##st"
      ],
      [
        "##ar",
        "##y"
      ],
      [
        "##p",
        "##t"
      ],
      [
        "##t",
        "##her"
      ],
      [
        "##in",
        "##e"
      ],
      [
        "##r",
        "##it"
      ],
      [
        "l",
        "##e"
      ],
      [
        "##ic",
        "##al"
      ],
      [
        "##av",
        "##e"
      ],
      [
        "r",
        "##ec"
      ],
      [
        "C",
        "##h"
      ],
      [
        "##igh",
        "##t"
      ],
      [
        "##p",
        "##l"
      ],
      [
        "##i",
        "##e"
      ],
      [
        "20",
        "##0"
      ],
      [
        "##ou",
        "##t"
      ],
      [
        "##c",
        "##c"
      ],
      [
        "in",
        "##c"
      ],
      [
        "##f",
        "##ter"
      ],
      [
        "##ou",
        "##ld"
      ],
      [
        "b",
        "##ut"
      ],
      [
        "f",
        "##ir"
      ],
      [
        "##is",
        "##h"
      ],
      [
        "##ou",
        "##s"
      ],
      [
        "##ion",
        "##s"
      ],
      [
        "##f",
        "##f"
      ],
      [
        "in",
        "##t"
      ],
      [
        "con",
        "##t"
      ],
      [
        "a",
        "##r"
      ],
      [
        "w",
        "##he"
      ],
      [
        "##s",
        "##o"
      ],
      [
        "##u",
        "##re"
      ],
      [
        "h",
        "##er"
      ],
      [
        "##o",
        "##g"
      ],
      [
        "##u",
        "##e"
      ],
      [
        "fir",
        "##st"
      ],
      [
        "##u",
        "##b"
      ],
      [
        "c",
        "##l"
      ],
      [
        "##w",
        "##o"
      ],
      [
        "##p",
        "##er"
      ],
      [
        "i",
        "##ts"
      ],
      [
        "##as",
        "##s"
      ],
      [
        "the",
        "##ir"
      ],
      [
        "##ig",
        "##n"
      ],
      [
        "##o",
        "##k"
      ],
      [
        "##or",
        "##k"
      ],
      [
        "##or",
        "##m"
      ],
      [
        "r",
        "##es"
      ],
      [
        "##r",
        "##u"
      ],
      [
        "##r",
        "##a"
      ],
      [
        "##ol",
        "##l"
      ],
      [
        "##om",
        "##e"
      ],
      [
        "##at",
        "##er"
      ],
      [
        "e",
        "##n"
      ],
      [
        "al",
        "##so"
      ],
      [
        "##0",
        "##0"
      ],
      [
        "a",
        "##b"
      ],
      [
        "##on",
        "##d"
      ],
      [
        "a",
        "##d"
      ],
      [
        "##ag",
        "##e"
      ],
      [
        "##id",
        "##e"
      ],
      [
        "H",
        "##e"
      ],
      [
        "##r",
        "##y"
      ],
      [
        "##m",
        "##er"
      ],
      [
        "##he",
        "##d"
      ],
      [
        "##i",
        "##re"
      ],
      [
        "r",
        "##el"
      ],
      [
        "##an",
        "##s"
      ],
      [
        "##im",
        "##e"
      ],
      [
        "p",
        "##er"
      ],
      [
        "u",
        "##n"
      ],
      [
        "T",
        "##h"
      ],
      [
        "on",
        "##e"
      ],
      [
        "h",
        "##ave"
      ],
      [
        "s",
        "##c"
      ],
      [
        "##d",
        "##u"
      ],
      [
        "##e",
        "##nd"
      ],
      [
        "##al",
        "##ly"
      ],
      [
        "##en",
        "##ce"
      ],
      [
        "##ow",
        "##n"
      ],
      [
        "##ou",
        "##nd"
      ],
      [
        "1",
        "##8"
      ],
      [
        "##il",
        "##e"
      ],
      [
        "##an",
        "##ce"
      ],
      [
        "t",
        "##wo"
      ],
      [
        "##it",
        "##ion"
      ],
      [
        "##ou",
        "##gh"
      ],
      [
        "wh",
        "##o"
      ],
      [
        "##i",
        "##z"
      ],
      [
        "##re",
        "##e"
      ],
      [
        "##ur",
        "##ing"
      ],
      [
        "be",
        "##en"
      ],
      [
        "A",
        "##l"
      ],
      [
        "b",
        "##ec"
      ],
      [
        "h",
        "##as"
      ],
      [
        "a",
        "##g"
      ],
      [
        "##el",
        "##y"
      ],
      [
        "a",
        "##pp"
      ],
      [
        "##p",
        "##r"
      ],
      [
        "20",
        "##1"
      ],
      [
        "al",
        "##l"
      ],
      [
        "d",
        "##is"
      ],
      [
        "##ac",
        "##t"
      ],
      [
        "s",
        "##er"
      ],
      [
        "th",
        "##is"
      ],
      [
        "##l",
        "##ud"
      ],
      [
        "##or",
        "##y"
      ],
      [
        "##e",
        "##y"
      ],
      [
        "##ic",
        "##e"
      ],
      [
        "y",
        "##ear"
      ],
      [
        "##ation",
        "##s"
      ],
      [
        "##em",
        "##ber"
      ],
      [
        "##ac",
        "##h"
      ],
      [
        "of",
        "##f"
      ],
      [
        "a",
        "##fter"
      ],
      [
        "##ar",
        "##k"
      ],
      [
        "p",
        "##art"
      ],
      [
        "com",
        "##p"
      ],
      [
        "I",
        "##t"
      ],
      [
        "d",
        "##es"
      ],
      [
        "pl",
        "##ay"
      ],
      [
        "o",
        "##ver"
      ],
      [
        "##ac",
        "##e"
      ],
      [
        "##l",
        "##and"
      ],
      [
        "o",
        "##ut"
      ],
      [
        "the",
        "##y"
      ],
      [
        "at",
        "##t"
      ],
      [
        "##ad",
        "##e"
      ],
      [
        "##i",
        "##k"
      ],
      [
        "##e",
        "##as"
      ],
      [
        "##r",
        "##ic"
      ],
      [
        "o",
        "##ther"
      ],
      [
        "##i",
        "##b"
      ],
      [
        "m",
        "##an"
      ],
      [
        "##ul",
        "##t"
      ],
      [
        "##en",
        "##s"
      ],
      [
        "i",
        "##m"
      ],
      [
        "inc",
        "##lud"
      ],
      [
        "##o",
        "##ver"
      ],
      [
        "##c",
        "##ed"
      ],
      [
        "##a",
        "##il"
      ],
      [
        "##e",
        "##e"
      ],
      [
        "##ur",
        "##n"
      ],
      [
        "##w",
        "##n"
      ],
      [
        "w",
        "##ould"
      ],
      [
        "u",
        "##s"
      ],
      [
        "u",
        "##p"
      ],
      [
        "##in",
        "##d"
      ],
      [
        "##an",
        "##g"
      ],
      [
        "t",
        "##ime"
      ],
      [
        "##m",
        "##an"
      ],
      [
        "int",
        "##o"
      ],
      [
        "p",
        "##re"
      ],
      [
        "##ou",
        "##nt"
      ],
      [
        "##w",
        "##ard"
      ],
      [
        "##o",
        "##in"
      ],
      [
        "h",
        "##im"
      ],
      [
        "##it",
        "##e"
      ],
      [
        "##o",
        "##y"
      ],
      [
        "O",
        "##n"
      ],
      [
        "U",
        "##n"
      ],
      [
        "##at",
        "##es"
      ],
      [
        "s",
        "##he"
      ],
      [
        "##e",
        "##en"
      ],
      [
        "e",
        "##v"
      ],
      [
        "##n",
        "##g"
      ],
      [
        "##il",
        "##m"
      ],
      [
        "##ab",
        "##le"
      ],
      [
        "##nd",
        "##er"
      ],
      [
        "##it",
        "##ed"
      ],
      [
        "##am",
        "##p"
      ],
      [
        "##i",
        "##ed"
      ],
      [
        "##e",
        "##ver"
      ],
      [
        "##ct",
        "##ion"
      ],
      [
        "com",
        "##m"
      ],
      [
        "##or",
        "##s"
      ],
      [
        "in",
        "##ter"
      ],
      [
        "##os",
        "##e"
      ],
      [
        "##ent",
        "##s"
      ],
      [
        "##on",
        "##s"
      ],
      [
        "##rou",
        "##gh"
      ],
      [
        "##l",
        "##es"
      ],
      [
        "##o",
        "##od"
      ],
      [
        "##a",
        "##w"
      ],
      [
        "##c",
        "##es"
      ],
      [
        "m",
        "##ore"
      ],
      [
        "w",
        "##ork"
      ],
      [
        "A",
        "##r"
      ],
      [
        "##ol",
        "##d"
      ],
      [
        "##oc",
        "##k"
      ],
      [
        "F",
        "##r"
      ],
      [
        "##f",
        "##orm"
      ],
      [
        "##ing",
        "##s"
      ],
      [
        "##on",
        "##e"
      ],
      [
        "##v",
        "##el"
      ],
      [
        "##ic",
        "##k"
      ],
      [
        "##et",
        "##w"
      ],
      [
        "##il",
        "##d"
      ],
      [
        "n",
        "##ew"
      ],
      [
        "##e",
        "##at"
      ],
      [
        "s",
        "##ec"
      ],
      [
        "##f",
        "##t"
      ],
      [
        "whe",
        "##n"
      ],
      [
        "##in",
        "##al"
      ],
      [
        "f",
        "##ilm"
      ],
      [
        "con",
        "##s"
      ],
      [
        "##f",
        "##er"
      ],
      [
        "##i",
        "##ous"
      ],
      [
        "##w",
        "##ay"
      ],
      [
        "##ak",
        "##e"
      ],
      [
        "M",
        "##ar"
      ],
      [
        "##is",
        "##s"
      ],
      [
        "##a",
        "##us"
      ],
      [
        "##at",
        "##t"
      ],
      [
        "##re",
        "##at"
      ],
      [
        "##rou",
        "##nd"
      ],
      [
        "##e",
[...]
